<unk>	0
<s>	0
</s>	0
<S>	0
<T>	0
</S>	0
<P>	0
<PAD>	0
<Q>	0
<SUPP_START>	0
<supp_start>	0
▁the	-3.20838
▁,	-3.26763
▁.	-3.48401
▁	-3.52195
s	-3.60413
▁a	-3.9684
▁to	-3.97073
▁of	-4.07041
▁and	-4.11595
▁in	-4.19731
▁that	-4.7646
-	-4.85886
.	-4.98358
▁for	-5.03919
▁on	-5.05947
▁'	-5.07363
▁was	-5.15046
▁is	-5.16965
’	-5.18352
▁it	-5.227
▁he	-5.24934
▁said	-5.29906
ed	-5.31225
ing	-5.35505
▁`	-5.3645
`	-5.36924
▁with	-5.37074
▁''	-5.3712
▁s	-5.5029
▁at	-5.54259
“	-5.60754
▁i	-5.62018
”	-5.62792
▁as	-5.63649
▁his	-5.6871
▁be	-5.69474
t	-5.71604
▁by	-5.74483
▁from	-5.7493
▁have	-5.78646
▁an	-5.81868
▁not	-5.83829
d	-5.876
▁this	-5.894
▁has	-5.89467
▁but	-5.90083
▁:	-5.90768
▁are	-5.91509
▁they	-5.98945
▁we	-6.01163
▁who	-6.02421
▁she	-6.04114
▁her	-6.06666
▁)	-6.08935
(	-6.09519
▁had	-6.14127
▁were	-6.1635
▁about	-6.19717
▁you	-6.22719
▁or	-6.24556
▁been	-6.32692
ly	-6.34306
▁their	-6.36622
▁one	-6.37477
▁will	-6.38294
▁more	-6.39687
er	-6.39937
e	-6.41739
▁after	-6.41921
m	-6.47858
y	-6.50258
▁would	-6.50474
▁people	-6.52736
▁when	-6.53148
▁out	-6.53496
▁n	-6.53944
▁new	-6.56848
▁all	-6.58272
▁which	-6.59576
▁up	-6.61416
▁there	-6.64069
▁t	-6.64884
▁so	-6.67688
▁do	-6.68273
'	-6.69395
▁what	-6.69747
▁can	-6.70044
▁also	-6.7172
n	-6.72453
▁no	-6.72859
a	-6.72883
▁if	-6.78184
▁than	-6.81933
▁—	-6.82481
▁two	-6.83546
▁over	-6.84735
▁other	-6.85674
▁time	-6.86787
re	-6.91433
es	-6.92387
▁police	-6.93253
▁some	-6.9341
▁into	-6.9408
▁its	-6.9422
▁him	-6.94556
▁just	-6.97462
▁could	-6.979
▁trump	-6.99477
▁re	-6.99772
▁like	-7.00059
▁first	-7.01252
al	-7.04483
▁-	-7.04537
▁president	-7.05446
▁told	-7.07471
▁our	-7.07646
▁u	-7.07991
i	-7.08255
▁years	-7.09545
▁state	-7.1079
?	-7.10848
▁says	-7.12887
c	-7.13251
▁did	-7.14329
▁last	-7.15044
▁my	-7.15173
▁now	-7.16893
▁them	-7.16937
$	-7.18024
o	-7.19149
▁may	-7.20367
▁because	-7.21299
r	-7.21981
▁any	-7.23725
▁me	-7.25113
▁where	-7.26482
▁before	-7.26907
▁year	-7.27147
;	-7.27314
▁get	-7.27577
▁most	-7.30024
▁how	-7.31021
▁us	-7.31227
▁news	-7.32454
▁while	-7.34363
in	-7.34461
▁only	-7.35388
▁back	-7.35665
▁say	-7.36051
▁according	-7.37118
▁mr	-7.38426
▁house	-7.39904
▁found	-7.40228
▁during	-7.4028
▁being	-7.44007
▁even	-7.44316
▁those	-7.44549
/	-7.44577
th	-7.45748
▁many	-7.46132
▁man	-7.47131
▁made	-7.49056
▁your	-7.49201
▁day	-7.49252
b	-7.50595
▁family	-7.50878
▁know	-7.51314
▁p	-7.51319
▁down	-7.52891
▁1	-7.52936
k	-7.53041
▁make	-7.54334
▁un	-7.54637
▁three	-7.54717
▁government	-7.54764
▁then	-7.55392
▁...	-7.56354
▁these	-7.57718
▁world	-7.58469
g	-7.59751
▁off	-7.59775
▁de	-7.60044
year	-7.6007
▁very	-7.60561
f	-7.60958
▁home	-7.61006
▁against	-7.6117
old	-7.61186
▁under	-7.61276
▁see	-7.61481
ers	-7.61652
▁–	-7.63152
▁since	-7.63299
▁still	-7.63354
▁going	-7.63393
▁way	-7.63518
▁well	-7.63789
▁obama	-7.63875
▁through	-7.64073
p	-7.64143
on	-7.64308
▁go	-7.64754
▁court	-7.6633
man	-7.68762
▁d	-7.70371
▁take	-7.7104
▁city	-7.71116
▁think	-7.72106
▁work	-7.72263
▁2	-7.72295
▁m	-7.72297
en	-7.72563
▁should	-7.72572
▁life	-7.73101
▁much	-7.73117
▁officials	-7.73266
▁including	-7.73352
—	-7.74749
▁between	-7.74918
▁case	-7.74991
ion	-7.75029
▁public	-7.75112
▁around	-7.75203
▁national	-7.75993
▁right	-7.76155
ve	-7.76321
or	-7.7644
▁such	-7.7652
l	-7.76572
▁white	-7.76608
▁another	-7.77472
▁week	-7.78003
▁million	-7.78415
▁long	-7.7858
▁show	-7.78851
▁women	-7.79375
▁law	-7.79663
▁former	-7.80221
▁both	-7.81201
▁part	-7.81719
%	-7.81992
▁called	-7.82023
▁10	-7.82307
▁school	-7.82444
h	-7.82583
]	-7.83293
▁[	-7.83421
▁report	-7.83743
▁co	-7.84713
▁want	-7.84735
▁high	-7.84806
▁group	-7.85541
▁country	-7.86073
▁states	-7.86186
w	-7.86587
▁tuesday	-7.87224
▁monday	-7.87459
▁company	-7.87574
▁statement	-7.88359
le	-7.88556
▁campaign	-7.88879
▁help	-7.89852
▁health	-7.90204
ic	-7.90712
▁night	-7.90964
▁used	-7.91354
▁good	-7.91358
▁here	-7.92406
▁children	-7.92457
▁3	-7.93022
it	-7.93215
▁death	-7.93354
▁use	-7.93553
▁north	-7.94067
▁department	-7.94224
▁american	-7.94349
▁york	-7.94396
▁office	-7.9448
▁car	-7.95213
▁same	-7.95387
▁media	-7.95698
▁never	-7.95934
▁later	-7.96502
▁does	-7.97001
▁!	-7.9778
z	-7.97968
is	-7.98142
▁percent	-7.98373
▁own	-7.9894
▁wednesday	-7.99047
▁left	-8.00196
▁security	-8.00577
ll	-8.00687
▁end	-8.01353
▁19	-8.02031
▁friday	-8.02054
▁e	-8.02704
ation	-8.02758
▁days	-8.02869
▁thursday	-8.04428
▁c	-8.04437
▁times	-8.04495
▁united	-8.04523
an	-8.04531
▁come	-8.05183
com	-8.05219
▁university	-8.053
able	-8.05759
▁today	-8.05797
▁al	-8.05876
ment	-8.06287
▁four	-8.0639
▁support	-8.06506
▁information	-8.06838
▁f	-8.069
▁woman	-8.07263
▁4	-8.08058
▁whether	-8.0857
▁post	-8.08622
▁press	-8.08954
▁got	-8.0919
to	-8.09346
▁county	-8.09367
▁video	-8.09412
▁next	-8.09473
▁men	-8.09634
▁k	-8.09649
▁asked	-8.1039
▁5	-8.10637
▁far	-8.10899
▁washington	-8.11103
ra	-8.11559
▁several	-8.11566
ity	-8.11737
▁war	-8.1174
▁took	-8.11766
▁team	-8.11941
▁need	-8.1232
st	-8.12341
▁reported	-8.12606
▁reports	-8.1323
▁killed	-8.13366
▁person	-8.13849
u	-8.14374
▁story	-8.144
ne	-8.14425
▁water	-8.14587
ro	-8.15247
us	-8.1558
▁don	-8.15591
▁federal	-8.16018
▁came	-8.16387
▁study	-8.16433
▁am	-8.16449
▁really	-8.16501
ive	-8.16958
▁republican	-8.17134
▁put	-8.17163
▁every	-8.17576
▁set	-8.17719
▁sunday	-8.18095
▁south	-8.1857
▁attack	-8.18579
▁o	-8.18728
ia	-8.18947
▁without	-8.19435
il	-8.19514
▁might	-8.19559
▁least	-8.20049
▁second	-8.20487
ton	-8.20523
▁saying	-8.20885
▁number	-8.21152
▁too	-8.21858
▁6	-8.219
▁party	-8.21933
▁why	-8.22253
▁per	-8.2268
▁best	-8.22815
▁among	-8.23745
▁20	-8.24055
▁place	-8.24119
▁few	-8.24135
▁each	-8.24177
▁something	-8.24218
▁went	-8.24633
▁clinton	-8.24697
▁r	-8.24704
▁mother	-8.25052
&	-8.25407
▁find	-8.25675
▁lot	-8.25771
▁fire	-8.266
▁early	-8.26956
na	-8.27014
▁wrote	-8.27214
▁call	-8.27314
ter	-8.27412
▁11	-8.27423
▁members	-8.27465
ch	-8.27476
▁months	-8.27517
▁care	-8.27811
▁morning	-8.27847
▁military	-8.2788
de	-8.28167
▁black	-8.282
▁g	-8.28232
x	-8.28399
▁little	-8.28476
ma	-8.28711
▁bill	-8.28783
▁ca	-8.29055
up	-8.29274
▁five	-8.29365
v	-8.29693
▁investigation	-8.2973
▁7	-8.29767
▁month	-8.30135
▁b	-8.30141
▁away	-8.30625
▁air	-8.30744
son	-8.30984
ri	-8.31256
▁near	-8.31259
▁though	-8.31765
▁facebook	-8.32027
▁until	-8.3247
▁center	-8.32728
id	-8.32846
▁past	-8.33359
▁area	-8.3344
▁love	-8.33642
▁12	-8.33723
▁political	-8.33878
▁big	-8.34349
▁con	-8.3471
‘	-8.34739
▁died	-8.35141
el	-8.35438
▁john	-8.35466
▁read	-8.35469
j	-8.35506
▁seen	-8.35566
▁8	-8.35693
ry	-8.35716
▁la	-8.36081
ar	-8.36475
▁known	-8.36477
▁local	-8.36571
▁authorities	-8.3659
▁top	-8.36595
▁son	-8.36724
▁however	-8.36934
▁taken	-8.37634
▁hospital	-8.3786
▁point	-8.38078
▁ago	-8.3815
▁data	-8.38691
▁look	-8.38945
▁head	-8.3897
▁official	-8.39036
▁likely	-8.39357
▁ve	-8.39408
▁system	-8.3958
ta	-8.39805
ist	-8.39926
co	-8.40159
▁added	-8.40194
▁human	-8.40269
▁earlier	-8.40306
▁ap	-8.40453
te	-8.41072
▁less	-8.41142
ent	-8.41339
▁great	-8.41393
▁hours	-8.41823
▁believe	-8.42157
▁social	-8.42348
▁money	-8.42448
▁service	-8.42577
▁st	-8.42579
▁rights	-8.42755
▁across	-8.42958
▁director	-8.42995
▁released	-8.43034
▁chief	-8.43048
▁body	-8.43079
▁things	-8.4318
▁w	-8.43266
▁change	-8.43477
▁already	-8.43913
▁photo	-8.44367
▁9	-8.4468
ies	-8.44709
▁different	-8.44727
▁saturday	-8.44825
▁research	-8.44896
▁again	-8.4507
est	-8.45271
â	-8.45414
▁using	-8.45439
▁working	-8.45469
▁young	-8.45634
ge	-8.45692
▁newser	-8.45965
▁child	-8.46118
▁ever	-8.46179
▁control	-8.46267
▁clear	-8.4645
▁decision	-8.46585
ling	-8.46635
▁name	-8.46908
▁evidence	-8.47011
▁twitter	-8.47081
ant	-8.471
ate	-8.47126
▁administration	-8.47282
am	-8.47562
▁six	-8.47724
▁real	-8.47797
▁officer	-8.48609
ian	-8.48654
▁general	-8.49041
▁recent	-8.4921
▁outside	-8.50014
▁father	-8.50206
▁san	-8.50281
▁hard	-8.50635
▁following	-8.50898
▁international	-8.51222
▁medical	-8.51254
▁shot	-8.5131
▁attorney	-8.51313
▁keep	-8.51406
▁live	-8.51575
▁once	-8.5177
▁deal	-8.51865
▁shooting	-8.51898
la	-8.51965
▁late	-8.51986
▁full	-8.52293
be	-8.52338
▁thought	-8.5235
▁making	-8.52371
▁yet	-8.52372
▁business	-8.52542
▁america	-8.52573
▁trying	-8.52621
ke	-8.52832
▁pre	-8.52968
▁hit	-8.53043
▁star	-8.5325
▁election	-8.5358
▁march	-8.54253
▁interview	-8.54254
▁better	-8.54303
▁15	-8.54382
▁face	-8.54659
▁senate	-8.54804
ul	-8.54938
▁power	-8.54978
▁kind	-8.55198
▁give	-8.55495
▁free	-8.55615
▁2014	-8.55836
▁dis	-8.55882
▁pro	-8.55941
▁close	-8.56271
▁pay	-8.5637
▁30	-8.56581
▁fact	-8.56694
▁officers	-8.57147
▁small	-8.57228
ine	-8.5754
▁judge	-8.57713
ous	-8.57775
▁run	-8.57946
▁published	-8.58018
▁thing	-8.5824
▁order	-8.58599
▁2016	-8.58645
▁open	-8.5881
▁began	-8.58843
▁able	-8.5917
ce	-8.5928
▁west	-8.59946
▁having	-8.60063
▁park	-8.60293
▁street	-8.60331
et	-8.60353
▁given	-8.60417
▁dead	-8.60426
▁important	-8.60834
▁others	-8.60886
▁heart	-8.60905
ca	-8.60982
▁plan	-8.61104
▁getting	-8.61195
ie	-8.61503
▁california	-8.61563
▁2015	-8.6186
▁possible	-8.61956
▁community	-8.62005
▁18	-8.62214
age	-8.6246
▁comment	-8.62612
▁line	-8.62648
▁j	-8.62718
▁agency	-8.63011
▁2012	-8.63079
rs	-8.63082
no	-8.63255
▁dr	-8.6331
li	-8.63316
▁along	-8.63431
▁let	-8.63784
▁must	-8.63859
▁process	-8.63864
▁become	-8.64134
▁wife	-8.64153
▁donald	-8.64183
▁le	-8.64219
▁film	-8.64233
and	-8.64451
mo	-8.64618
ley	-8.64686
▁issue	-8.6493
▁enough	-8.64998
the	-8.65294
▁friends	-8.65386
▁always	-8.6554
ated	-8.65758
▁mc	-8.65936
▁legal	-8.65975
▁vote	-8.66371
▁associated	-8.66703
▁justice	-8.66777
▁buy	-8.66907
▁history	-8.66931
ness	-8.66954
ty	-8.66981
▁nearly	-8.67046
▁policy	-8.67168
▁mo	-8.67232
me	-8.67456
▁food	-8.67777
▁latest	-8.67797
▁risk	-8.67917
▁behind	-8.68251
▁stop	-8.68404
▁move	-8.68456
▁phone	-8.68458
▁major	-8.68754
▁russian	-8.68901
▁taking	-8.69061
▁held	-8.69073
▁presidential	-8.69078
▁russia	-8.69144
▁ex	-8.69236
▁staff	-8.69294
▁parents	-8.69303
▁himself	-8.6934
▁china	-8.69638
▁side	-8.69698
▁gun	-8.70008
▁inside	-8.7028
▁someone	-8.70283
▁weeks	-8.70327
▁within	-8.70777
▁doing	-8.7079
▁|	-8.70873
▁wanted	-8.70903
▁site	-8.71009
▁saw	-8.71084
▁follow	-8.71502
▁type	-8.71568
▁16	-8.71713
▁republicans	-8.7178
▁foreign	-8.71865
▁large	-8.71938
▁14	-8.72091
▁13	-8.72115
▁meeting	-8.72138
▁front	-8.72336
as	-8.72345
▁minister	-8.72467
▁na	-8.72742
▁job	-8.72968
▁together	-8.73011
▁committee	-8.73766
▁district	-8.7386
▁started	-8.73872
▁hand	-8.73992
▁half	-8.73996
▁students	-8.74009
▁account	-8.74098
▁h	-8.74169
▁age	-8.74175
▁done	-8.74243
▁happened	-8.74274
▁special	-8.74285
▁room	-8.74295
▁daughter	-8.74325
▁often	-8.74388
per	-8.74533
▁leader	-8.74574
▁act	-8.74776
▁tell	-8.7538
▁murder	-8.75478
▁incident	-8.75609
▁expected	-8.75637
less	-8.75706
▁drug	-8.75725
▁tax	-8.75736
ey	-8.75819
▁program	-8.75914
▁force	-8.75918
land	-8.75976
ur	-8.76355
▁question	-8.76449
▁couple	-8.76473
led	-8.76496
tic	-8.76581
lo	-8.76613
ted	-8.7673
▁korea	-8.76864
ish	-8.76923
▁release	-8.7697
▁2013	-8.77052
▁announced	-8.77171
▁lost	-8.77318
▁further	-8.77349
▁billion	-8.7757
▁sexual	-8.77581
▁sea	-8.77639
▁didn	-8.77721
▁book	-8.77912
▁wall	-8.78052
▁charges	-8.78135
2	-8.78253
▁anti	-8.78318
▁start	-8.78386
▁lead	-8.78401
▁continue	-8.78455
▁sure	-8.78474
▁role	-8.78488
▁board	-8.78551
▁@	-8.78949
▁future	-8.7919
ad	-8.79225
▁researchers	-8.79545
ol	-8.79658
ary	-8.79668
▁arrested	-8.7979
▁based	-8.79869
▁sex	-8.79946
▁spokesman	-8.79999
▁anything	-8.80223
▁light	-8.80256
▁prison	-8.80304
▁almost	-8.80356
os	-8.80467
▁photos	-8.80484
▁sent	-8.80486
un	-8.80489
se	-8.80506
im	-8.80659
▁democratic	-8.80673
▁old	-8.80738
▁cnn	-8.80776
▁texas	-8.80879
at	-8.80911
▁response	-8.81057
mp	-8.81127
▁romney	-8.81147
▁won	-8.81243
ac	-8.81639
▁en	-8.81691
ು	-8.82063
▁june	-8.8207
do	-8.82108
▁looking	-8.8225
▁actually	-8.82437
ba	-8.8253
▁led	-8.82536
▁july	-8.8274
▁involved	-8.82762
go	-8.82858
▁mar	-8.82861
▁red	-8.82885
▁online	-8.82897
▁building	-8.82932
▁florida	-8.83083
▁game	-8.83187
1	-8.83316
▁action	-8.83352
▁congress	-8.83447
▁david	-8.83646
▁ro	-8.8366
▁provide	-8.83674
▁whose	-8.83719
ized	-8.83767
▁search	-8.8381
▁feel	-8.83815
▁april	-8.83963
▁race	-8.84273
ha	-8.84274
ga	-8.84276
▁debate	-8.84515
▁â	-8.8475
▁girl	-8.84847
▁received	-8.84981
▁source	-8.85053
▁list	-8.8512
▁matter	-8.85212
ating	-8.85304
▁bar	-8.85636
▁democrats	-8.86108
▁nothing	-8.86135
po	-8.86141
▁mark	-8.86187
▁bad	-8.86206
▁paul	-8.86217
▁short	-8.86282
ni	-8.86292
▁space	-8.87156
▁record	-8.87205
▁secretary	-8.87211
▁church	-8.87231
▁americans	-8.87385
▁non	-8.87686
▁17	-8.87878
ir	-8.88447
▁friend	-8.88474
time	-8.88715
▁boy	-8.88749
▁became	-8.88826
bo	-8.89049
▁trial	-8.89101
ut	-8.89171
ner	-8.89277
▁final	-8.89317
▁heard	-8.8942
▁michael	-8.89445
▁ra	-8.89474
▁el	-8.89525
▁play	-8.89727
▁shows	-8.89897
▁instead	-8.89995
▁leave	-8.90081
▁scene	-8.90203
▁recently	-8.90221
▁25	-8.90245
▁email	-8.90526
con	-8.90593
▁although	-8.90702
▁conference	-8.90735
▁li	-8.90753
▁criminal	-8.90879
▁questions	-8.91004
ber	-8.91074
▁town	-8.91213
▁v	-8.91289
▁road	-8.91443
▁low	-8.91468
ful	-8.9167
▁50	-8.91708
▁review	-8.91714
▁senior	-8.91915
▁similar	-8.92032
▁ka	-8.9213
▁coming	-8.92136
▁key	-8.92222
dy	-8.92254
▁met	-8.92489
▁watch	-8.92641
ig	-8.92758
▁lives	-8.92803
▁victims	-8.92828
▁rep	-8.92832
▁test	-8.92885
▁share	-8.92925
di	-8.9299
▁win	-8.93036
▁event	-8.93091
▁anyone	-8.93269
▁third	-8.93279
▁safety	-8.93478
▁charged	-8.93604
▁syria	-8.93661
▁problem	-8.93697
▁defense	-8.93698
▁described	-8.93804
▁ground	-8.93851
▁executive	-8.93871
▁course	-8.94004
▁due	-8.94315
▁hope	-8.9437
▁private	-8.94415
▁tried	-8.94498
▁cases	-8.94887
▁personal	-8.9544
▁nation	-8.95502
▁gave	-8.95532
0	-8.95604
▁talk	-8.95619
da	-8.95743
lin	-8.95883
▁da	-8.95897
▁posted	-8.95952
▁website	-8.95997
▁situation	-8.96142
▁soon	-8.96155
▁east	-8.96173
▁bo	-8.96212
▁comes	-8.96218
▁l	-8.96285
▁worked	-8.96618
▁countries	-8.96645
▁tweet	-8.96714
5	-8.96817
▁100	-8.96885
ka	-8.97
▁despite	-8.9706
▁24	-8.9711
▁leaders	-8.97161
out	-8.97206
▁college	-8.97256
▁series	-8.97288
▁everyone	-8.97711
▁result	-8.9779
▁ma	-8.9782
▁syrian	-8.97966
▁minutes	-8.98056
▁forces	-8.98189
▁issues	-8.98217
ster	-8.98252
▁showed	-8.98267
▁ho	-8.9831
▁remains	-8.98469
▁strong	-8.9852
▁apple	-8.98729
▁21	-8.98731
▁husband	-8.98745
▁cause	-8.98745
▁civil	-8.98822
7	-8.98949
way	-8.99005
▁project	-8.99394
▁fox	-8.99419
ot	-8.99468
▁attacks	-8.99502
▁middle	-8.99731
ism	-8.99755
▁companies	-8.99785
▁plane	-8.99791
▁appeared	-8.99889
▁accused	-8.99917
▁border	-8.99977
▁turned	-8.9999
▁student	-9.00009
▁2011	-9.00011
min	-9.00414
▁plans	-9.0074
▁investigators	-9.00843
▁member	-9.0087
▁bank	-9.01149
▁sen	-9.01173
▁intelligence	-9.01233
▁fbi	-9.01239
▁seven	-9.01378
▁sign	-9.01513
▁bring	-9.01546
▁pm	-9.01564
▁baby	-9.01617
▁access	-9.01648
▁visit	-9.01756
▁include	-9.01802
pe	-9.01812
▁current	-9.01859
ite	-9.02107
▁letter	-9.02328
▁groups	-9.02566
▁candidate	-9.02614
ten	-9.02747
▁idea	-9.02752
um	-9.02917
▁los	-9.03131
▁single	-9.03176
▁po	-9.0323
ance	-9.03241
▁missing	-9.03265
▁everything	-9.03291
▁cancer	-9.03398
▁movie	-9.03439
line	-9.03475
▁ha	-9.03537
▁turn	-9.03566
ier	-9.03713
ak	-9.03798
▁tv	-9.03888
▁super	-9.04043
▁fight	-9.04099
▁confirmed	-9.04149
▁running	-9.04225
▁storm	-9.04454
▁results	-9.04478
▁land	-9.04488
▁flight	-9.04616
▁violence	-9.04788
▁cut	-9.04846
ler	-9.04849
▁host	-9.04946
▁treatment	-9.04958
mi	-9.05009
▁workers	-9.05045
▁probably	-9.05075
ard	-9.05128
▁miles	-9.05231
▁rest	-9.05424
▁nuclear	-9.05455
▁potential	-9.05484
▁network	-9.05678
▁immediately	-9.05728
▁details	-9.05732
▁blood	-9.05859
▁ll	-9.06042
3	-9.06189
▁crime	-9.06201
▁voters	-9.06213
▁knew	-9.06358
▁reason	-9.06367
▁brain	-9.06399
6	-9.06405
▁ms	-9.06478
▁2017	-9.06616
mer	-9.0662
▁living	-9.06839
▁message	-9.07018
▁hearing	-9.07047
>	-9.07124
▁thousands	-9.07166
▁contact	-9.07168
ci	-9.07294
▁try	-9.07645
▁claims	-9.07659
▁disease	-9.07767
▁protect	-9.0784
▁station	-9.07862
ped	-9.08009
op	-9.08236
▁return	-9.08243
▁killing	-9.08344
▁spent	-9.08426
▁speech	-9.08437
▁2010	-9.0867
ny	-9.0879
	-9.08798
▁market	-9.08814
ally	-9.08815
▁assault	-9.08939
▁brown	-9.0896
ee	-9.09197
▁season	-9.09423
ah	-9.09479
▁40	-9.09511
ti	-9.09625
▁cost	-9.09698
▁science	-9.09756
▁services	-9.09822
▁union	-9.10011
▁global	-9.10166
▁gop	-9.10251
▁art	-9.10408
▁families	-9.10685
▁london	-9.10781
▁identified	-9.10847
▁enforcement	-9.10858
▁economic	-9.10966
▁secret	-9.10997
▁talking	-9.11025
▁condition	-9.1115
▁period	-9.11239
▁james	-9.11304
▁governor	-9.11382
▁daily	-9.11392
▁wrong	-9.114
our	-9.11825
▁mean	-9.11886
▁stories	-9.11942
▁pa	-9.11969
▁du	-9.12007
▁lo	-9.12112
▁kim	-9.1229
▁level	-9.12381
▁prime	-9.12406
ger	-9.12532
▁forward	-9.12619
▁available	-9.12633
é	-9.12672
▁kids	-9.1274
▁sheriff	-9.12845
▁calls	-9.12877
#	-9.12894
▁january	-9.12984
▁stay	-9.13025
▁material	-9.13102
▁rather	-9.1315
▁vi	-9.13352
▁bush	-9.13408
▁impact	-9.13453
▁included	-9.13591
▁22	-9.13594
▁brought	-9.13675
▁serious	-9.13691
▁means	-9.13779
▁google	-9.1384
▁lu	-9.1385
▁whole	-9.13916
ang	-9.14101
▁makes	-9.14162
▁financial	-9.14195
▁ban	-9.14231
▁/	-9.14437
pa	-9.14447
▁wo	-9.14481
sh	-9.14495
▁address	-9.14503
▁comments	-9.14544
▁currency	-9.14586
▁understand	-9.14692
bi	-9.14864
▁rock	-9.15139
▁lawsuit	-9.15259
8	-9.15289
ap	-9.15468
▁example	-9.15606
▁relationship	-9.15687
ize	-9.15697
▁green	-9.1587
▁eight	-9.15926
▁either	-9.15968
by	-9.16032
▁total	-9.16197
ence	-9.1632
▁gas	-9.16393
ial	-9.16419
▁records	-9.16427
▁et	-9.16532
▁central	-9.1657
▁ba	-9.16592
▁self	-9.16868
▁mis	-9.16901
▁believed	-9.16924
▁female	-9.16986
end	-9.17004
▁scientists	-9.17117
▁longer	-9.17124
▁island	-9.17133
bb	-9.17234
▁august	-9.17379
▁moment	-9.17387
*	-9.17439
▁capital	-9.17533
we	-9.17593
▁council	-9.17619
▁marriage	-9.17636
▁reporters	-9.17851
▁jail	-9.17877
ab	-9.17959
▁hold	-9.17995
▁chance	-9.18023
▁view	-9.18106
▁remain	-9.18219
▁article	-9.18359
▁filed	-9.18492
▁bit	-9.18541
he	-9.18576
▁store	-9.18594
▁hu	-9.18755
fi	-9.18769
▁suspect	-9.18803
▁angeles	-9.18899
▁images	-9.18902
ck	-9.19163
off	-9.19198
red	-9.19283
▁king	-9.19358
▁lower	-9.19398
▁allow	-9.19418
▁page	-9.19458
▁stand	-9.19489
▁related	-9.19575
▁higher	-9.19588
▁va	-9.19668
▁george	-9.19672
au	-9.19698
que	-9.19843
▁trade	-9.19849
gg	-9.1986
der	-9.19891
▁weapons	-9.19925
4	-9.19926
▁sources	-9.19927
tion	-9.20029
mb	-9.2009
▁step	-9.20156
▁november	-9.20261
▁mass	-9.20279
tor	-9.20363
▁fall	-9.20407
▁toward	-9.20422
▁needed	-9.20607
▁music	-9.20614
▁position	-9.20817
▁sun	-9.20877
▁efforts	-9.20907
▁emergency	-9.20924
▁crowd	-9.2096
ho	-9.20977
▁meet	-9.21005
▁employees	-9.21122
▁army	-9.21157
▁spoke	-9.21249
▁fa	-9.21336
▁fe	-9.2136
va	-9.21513
▁internet	-9.21642
▁attention	-9.2168
▁felt	-9.21745
▁words	-9.21807
em	-9.21888
▁afternoon	-9.21904
▁british	-9.2193
▁true	-9.21959
▁decided	-9.22122
▁break	-9.22195
0,000	-9.22206
▁additional	-9.22223
▁experience	-9.22303
▁firm	-9.2237
▁//	-9.22457
▁industry	-9.22577
▁previously	-9.22633
▁effort	-9.22675
based	-9.22864
▁residents	-9.23046
▁quickly	-9.23127
▁class	-9.23263
▁nbc	-9.23334
▁app	-9.23377
▁problems	-9.23416
▁september	-9.23437
▁ja	-9.23443
▁cover	-9.23538
▁journal	-9.23579
▁arrest	-9.23633
pp	-9.23635
ven	-9.23843
▁common	-9.24036
▁block	-9.24045
▁airport	-9.24066
▁victim	-9.24103
ure	-9.24117
▁continued	-9.2433
▁damage	-9.24391
▁region	-9.24626
▁protest	-9.24973
▁documents	-9.25085
▁attempt	-9.25104
▁weekend	-9.25245
=	-9.2537
▁text	-9.25459
▁wa	-9.25547
▁image	-9.25577
▁issued	-9.25578
wa	-9.25583
▁lawyer	-9.25589
day	-9.25604
▁calling	-9.25725
▁patients	-9.25889
ver	-9.25929
hi	-9.25938
▁brother	-9.25997
▁figure	-9.26021
ham	-9.26067
▁van	-9.26162
▁model	-9.26177
▁ship	-9.26188
▁difficult	-9.26425
▁sa	-9.26468
▁23	-9.26492
▁earth	-9.26501
▁especially	-9.26511
▁nor	-9.26648
▁crash	-9.26739
▁sub	-9.26823
▁sp	-9.27002
▁mayor	-9.27042
men	-9.27094
▁significant	-9.27155
▁iran	-9.27288
▁price	-9.27379
▁fiat	-9.27458
den	-9.27492
▁broadcast	-9.27549
▁safe	-9.27748
▁seems	-9.27815
▁mind	-9.27897
che	-9.27974
▁cha	-9.28121
▁allowed	-9.28213
▁themselves	-9.2829
▁respect	-9.28433
▁pe	-9.28557
▁stage	-9.28601
▁die	-9.28612
▁increase	-9.28632
▁river	-9.28646
▁trip	-9.28811
▁caused	-9.28864
▁usd	-9.29009
▁battle	-9.29032
▁october	-9.29123
▁majority	-9.29159
▁previous	-9.29401
▁abuse	-9.2942
▁robert	-9.29443
▁date	-9.29598
▁prevent	-9.29667
▁coast	-9.29684
▁changes	-9.29686
▁wants	-9.29698
▁hands	-9.29719
▁professor	-9.29731
▁jobs	-9.29735
▁hotel	-9.29872
▁doesn	-9.2995
▁sense	-9.29997
▁scott	-9.30046
▁interest	-9.30093
▁december	-9.30129
▁subject	-9.30151
▁else	-9.30214
▁multiple	-9.30228
▁rate	-9.30229
▁btc	-9.30247
▁organization	-9.30294
▁26	-9.30327
▁decades	-9.3035
ect	-9.30509
▁base	-9.30614
▁technology	-9.30626
za	-9.30633
▁voice	-9.30683
tra	-9.3072
▁discovered	-9.30736
<	-9.30792
▁appears	-9.30833
▁ko	-9.30839
▁alleged	-9.30924
▁agreement	-9.30982
▁avoid	-9.31057
▁reached	-9.31062
▁named	-9.31276
▁check	-9.31341
▁average	-9.31353
▁declined	-9.31379
▁allegations	-9.31393
▁effect	-9.31396
▁door	-9.31433
▁conservative	-9.31492
▁uid	-9.31553
▁injured	-9.31622
▁french	-9.31628
▁leading	-9.31646
▁israel	-9.317
▁contributed	-9.3174
one	-9.31785
▁paid	-9.31801
▁hundreds	-9.31872
...	-9.31974
▁pressure	-9.31982
▁credit	-9.32033
▁2009	-9.3219
▁behavior	-9.32261
▁expect	-9.32617
▁development	-9.32673
▁ga	-9.32673
▁television	-9.32729
▁tells	-9.32749
▁form	-9.32763
lu	-9.328
▁areas	-9.3286
▁helped	-9.3321
▁hall	-9.33284
fa	-9.33415
▁god	-9.33461
▁adding	-9.33537
00	-9.33561
▁happen	-9.33562
▁camp	-9.33696
▁2008	-9.33699
mon	-9.3384
▁above	-9.33904
▁present	-9.3394
▁oil	-9.34011
▁28	-9.3411
▁feet	-9.34264
▁male	-9.34431
ud	-9.34437
▁vehicle	-9.34443
▁compar	-9.34451
▁charge	-9.34491
gen	-9.34527
▁certain	-9.34551
▁threat	-9.34582
▁provided	-9.34593
▁crisis	-9.34785
▁studies	-9.34856
▁mission	-9.34896
▁version	-9.34899
▁27	-9.35626
oc	-9.35722
▁author	-9.3573
▁se	-9.35807
▁imp	-9.35811
▁appear	-9.35843
▁deep	-9.35914
▁association	-9.36025
ft	-9.36098
▁field	-9.36103
▁shared	-9.36362
▁european	-9.36406
▁ask	-9.36415
▁drive	-9.36424
▁summer	-9.36431
▁cross	-9.36516
▁korean	-9.36663
ina	-9.36766
ow	-9.36767
ise	-9.36768
–	-9.36907
▁amount	-9.36971
▁popular	-9.36993
▁prosecutors	-9.37201
▁raised	-9.37341
▁ran	-9.37366
▁word	-9.37401
▁moved	-9.37467
vo	-9.37617
tur	-9.37637
▁di	-9.37676
▁sister	-9.37697
▁failed	-9.37723
▁events	-9.3774
▁experts	-9.3777
▁energy	-9.37825
▁iraq	-9.38038
▁mid	-9.38044
▁birth	-9.38065
▁primary	-9.38164
▁arrived	-9.38182
tter	-9.38272
-2013	-9.38295
▁supreme	-9.38383
▁below	-9.38417
▁kill	-9.38455
▁gone	-9.38468
▁grand	-9.38571
▁travel	-9.38571
▁barack	-9.38574
▁main	-9.38619
▁sha	-9.38638
▁chicago	-9.38647
▁har	-9.38686
▁60	-9.3874
▁suit	-9.38855
▁gay	-9.38912
▁hillary	-9.38914
▁pretty	-9.38923
▁beach	-9.38949
▁via	-9.38955
▁guy	-9.39009
▁request	-9.39017
mm	-9.39056
▁individual	-9.39104
▁johnson	-9.39113
▁mexico	-9.39131
▁fired	-9.39153
▁france	-9.3916
▁biggest	-9.39284
q	-9.39357
▁reporting	-9.39519
▁population	-9.39646
od	-9.39841
kin	-9.39848
▁entire	-9.39911
▁dec	-9.39922
tro	-9.39975
▁passed	-9.40088
▁itself	-9.40173
▁currently	-9.40236
▁range	-9.4028
▁finally	-9.40307
▁protesters	-9.40321
▁speaking	-9.40343
side	-9.40387
▁lack	-9.4039
▁february	-9.40538
▁economy	-9.4056
▁ice	-9.41006
▁claimed	-9.41012
▁focus	-9.411
▁create	-9.41252
▁needs	-9.41302
▁fi	-9.4135
▁answer	-9.41464
,	-9.41497
▁considered	-9.41548
▁allegedly	-9.41611
▁29	-9.41636
▁poll	-9.41762
▁planned	-9.41814
▁gain	-9.41983
▁claim	-9.42133
▁instant	-9.42193
▁points	-9.42252
ward	-9.42304
▁worth	-9.42387
if	-9.42617
▁chris	-9.42633
▁senator	-9.42805
▁paper	-9.42838
▁chinese	-9.42896
▁simply	-9.43084
les	-9.43094
▁looked	-9.43116
▁x	-9.43262
▁leaving	-9.4335
▁ahead	-9.43366
▁evening	-9.43424
nd	-9.43429
▁accident	-9.43483
▁largest	-9.43546
30	-9.43571
▁raise	-9.43589
▁em	-9.43604
▁nine	-9.43736
▁career	-9.43775
ble	-9.43887
▁born	-9.43917
act	-9.44032
▁spending	-9.44065
▁sal	-9.44074
▁spend	-9.44312
▁analysis	-9.44378
om	-9.44485
▁fla	-9.44599
▁independent	-9.4477
▁played	-9.44799
▁doctors	-9.44808
ನ	-9.4483
▁agreed	-9.44852
▁huge	-9.44923
ville	-9.44997
av	-9.4523
▁users	-9.45254
▁offered	-9.45408
▁lake	-9.45422
nt	-9.45437
▁blue	-9.45515
▁movement	-9.45526
ions	-9.45542
▁speak	-9.4559
▁cruz	-9.45663
▁sch	-9.45814
ning	-9.45826
▁gu	-9.45833
▁fair	-9.45873
berg	-9.45905
▁smith	-9.45907
▁inter	-9.46003
▁brand	-9.46035
▁hear	-9.46182
▁sometimes	-9.46224
_	-9.46393
▁radio	-9.4641
▁pass	-9.46425
▁dan	-9.46459
ec	-9.46487
▁driver	-9.46495
▁southern	-9.46564
ors	-9.46716
▁choice	-9.46786
▁girls	-9.46812
▁created	-9.46895
▁offer	-9.4692
▁vice	-9.4696
▁walk	-9.47048
▁conditions	-9.47127
vi	-9.47171
▁levels	-9.47278
ze	-9.47368
▁fear	-9.47453
▁cast	-9.47754
▁content	-9.47756
▁computer	-9.47796
▁direct	-9.47925
▁seemed	-9.47952
su	-9.4798
▁species	-9.48012
▁perhaps	-9.48052
▁performance	-9.4808
▁rules	-9.48098
▁followed	-9.48148
▁device	-9.48197
▁houston	-9.48203
▁budget	-9.48226
▁ryan	-9.48299
▁train	-9.48386
9	-9.48428
▁goes	-9.48489
▁francisco	-9.48494
▁accounts	-9.48503
▁operation	-9.48533
▁apparently	-9.48631
▁maybe	-9.48847
▁ri	-9.48885
▁original	-9.48931
▁fell	-9.49015
▁growing	-9.49063
▁returned	-9.49098
▁hour	-9.49113
▁reach	-9.49268
▁giving	-9.49316
▁carolina	-9.4933
▁kept	-9.49354
▁bra	-9.49354
▁alcohol	-9.49386
▁pick	-9.49386
▁survey	-9.4954
▁responsible	-9.4961
▁character	-9.49671
ub	-9.49821
▁send	-9.49836
▁inc	-9.50092
▁concerns	-9.50124
▁supporters	-9.5024
▁stock	-9.50241
▁consider	-9.50249
▁exchange	-9.50357
▁term	-9.50381
▁dog	-9.50439
▁hot	-9.50509
▁revealed	-9.5053
pi	-9.50626
▁ben	-9.50772
▁products	-9.50807
▁manager	-9.50837
pro	-9.50838
ative	-9.50869
▁note	-9.50879
▁drugs	-9.50887
▁politics	-9.50978
of	-9.5101
▁track	-9.51056
▁martin	-9.51073
▁reporter	-9.51086
▁sound	-9.51261
▁alone	-9.51338
ical	-9.51431
ach	-9.5144
▁loss	-9.51469
ship	-9.51514
▁opposition	-9.51531
▁remember	-9.51554
▁particularly	-9.51602
▁size	-9.51837
▁beyond	-9.51856
▁forced	-9.51897
▁islamic	-9.51904
▁jan	-9.51922
▁measure	-9.51923
▁ta	-9.51963
▁add	-9.51966
▁goal	-9.51968
▁williams	-9.51979
▁chemical	-9.52025
▁floor	-9.5203
▁closed	-9.52064
▁chairman	-9.52113
▁guard	-9.52188
▁fine	-9.52192
▁che	-9.52243
▁institute	-9.52244
▁western	-9.52264
ett	-9.52424
▁concern	-9.52518
▁eventually	-9.52522
▁asking	-9.52643
▁poor	-9.52662
▁critical	-9.52738
▁newspaper	-9.52827
▁annual	-9.52856
▁ocean	-9.53047
▁terms	-9.53087
ph	-9.5319
▁happy	-9.53194
▁spread	-9.53221
▁immigration	-9.53242
ಿ	-9.53259
▁lee	-9.53269
▁rise	-9.53367
▁specific	-9.53405
▁receive	-9.53567
▁fast	-9.53652
▁suicide	-9.53709
▁debt	-9.53834
▁reuters	-9.53894
▁sentence	-9.54033
▁respond	-9.54041
▁written	-9.54074
▁climate	-9.54105
▁sanders	-9.54119
ice	-9.54201
▁education	-9.54211
▁actions	-9.54257
▁guilty	-9.54272
▁trust	-9.54324
qui	-9.54344
▁ended	-9.54435
▁learned	-9.54487
▁animal	-9.54627
▁society	-9.54785
bu	-9.54956
▁commission	-9.54974
▁apartment	-9.5511
ities	-9.55138
▁suggested	-9.55148
▁weather	-9.55253
▁quite	-9.55281
▁picture	-9.55373
▁opened	-9.55394
▁animals	-9.5547
▁arm	-9.55505
king	-9.55563
▁europe	-9.55767
▁table	-9.5581
ping	-9.5581
gan	-9.55859
▁numbers	-9.55979
▁br	-9.55979
ran	-9.55988
▁abc	-9.56124
▁ad	-9.56142
▁2018	-9.56178
io	-9.56221
▁fighting	-9.56374
▁warning	-9.56657
▁thank	-9.56829
▁whom	-9.56862
▁sales	-9.56878
▁customers	-9.57034
lan	-9.5706
▁approach	-9.57084
ja	-9.57116
▁updated	-9.57125
▁sell	-9.57152
▁mike	-9.57162
sen	-9.57203
▁peace	-9.57239
▁paris	-9.57289
ney	-9.57299
▁changed	-9.57442
▁stone	-9.57475
back	-9.57495
▁denied	-9.57548
▁http	-9.57561
port	-9.57593
▁cat	-9.57593
▁pain	-9.57614
pl	-9.57727
▁served	-9.57773
▁northern	-9.57792
▁build	-9.57884
▁protection	-9.57921
▁throughout	-9.5793
▁gov	-9.57964
▁pet	-9.58044
▁cbs	-9.58103
▁ceo	-9.58127
▁round	-9.58185
▁clean	-9.5819
▁ar	-9.58197
▁rule	-9.58271
▁candidates	-9.58324
▁deputy	-9.5833
▁positive	-9.58393
light	-9.58449
ell	-9.58571
hr	-9.58608
tu	-9.58611
▁hurt	-9.58735
▁product	-9.58747
▁eye	-9.5879
▁serve	-9.58802
▁natural	-9.58823
▁screen	-9.58836
▁amazon	-9.58873
▁cell	-9.58926
▁click	-9.58928
	-9.58951
ack	-9.59002
len	-9.59117
▁updates	-9.59168
	-9.59471
▁reform	-9.5948
▁sort	-9.59488
▁telling	-9.59516
▁tu	-9.5954
▁driving	-9.59546
▁addition	-9.59622
▁holding	-9.59662
▁cla	-9.597
▁launch	-9.5977
▁appeal	-9.59833
▁cook	-9.59852
▁gold	-9.59893
▁talks	-9.60101
▁increased	-9.60111
▁uk	-9.60183
▁training	-9.6022
▁virginia	-9.6024
▁stopped	-9.60246
field	-9.60266
▁yes	-9.60328
ric	-9.60353
▁path	-9.60411
▁spokeswoman	-9.60453
let	-9.60458
▁married	-9.60585
▁bay	-9.60596
▁dangerous	-9.6061
▁seem	-9.60933
zi	-9.61013
▁property	-9.61132
gu	-9.61256
▁kelly	-9.61302
tri	-9.61311
▁conflict	-9.61339
▁magazine	-9.61339
▁port	-9.61357
ek	-9.61483
▁seeking	-9.61492
ag	-9.61497
▁copyright	-9.61594
tain	-9.61614
▁wi	-9.61658
har	-9.6171
▁individuals	-9.61738
▁hill	-9.61751
▁legislation	-9.61752
▁hollywood	-9.61792
▁hair	-9.61856
▁lived	-9.61882
▁truck	-9.61899
▁honor	-9.61904
▁includes	-9.61925
▁editor	-9.61955
▁ruling	-9.62067
▁moving	-9.62113
▁responded	-9.62121
▁mom	-9.62129
ex	-9.62363
tz	-9.6255
ps	-9.62564
▁showing	-9.62574
ified	-9.62604
▁joe	-9.62609
▁target	-9.62657
▁effects	-9.6285
▁bur	-9.63047
▁tweeted	-9.6307
well	-9.63093
▁reserved	-9.6312
iv	-9.63139
▁piece	-9.63348
▁putin	-9.63359
▁activity	-9.63371
▁actor	-9.6339
▁club	-9.63422
▁japan	-9.63433
ov	-9.63482
▁bin	-9.63491
▁sit	-9.63499
▁aid	-9.63616
▁snow	-9.63618
▁playing	-9.63631
ned	-9.63644
▁writing	-9.63697
▁agree	-9.63804
▁value	-9.63867
▁bus	-9.63888
▁christian	-9.63903
▁fo	-9.63974
▁reportedly	-9.64056
▁injuries	-9.64145
▁plant	-9.64229
▁connection	-9.64289
▁bomb	-9.64302
▁complete	-9.64391
▁works	-9.64682
▁practice	-9.64722
tal	-9.64725
▁topic	-9.64796
ably	-9.64831
ron	-9.64857
▁31	-9.64882
ren	-9.64898
▁ru	-9.65068
▁catch	-9.65156
▁match	-9.65192
▁traffic	-9.65246
▁pi	-9.65356
▁scheduled	-9.65366
ization	-9.65388
▁troops	-9.65408
▁dark	-9.65463
▁boston	-9.65483
▁ready	-9.65539
▁occurred	-9.65591
▁rose	-9.65615
▁ability	-9.65628
▁contract	-9.6573
fe	-9.65778
ring	-9.65849
▁required	-9.65928
▁z	-9.66027
▁meanwhile	-9.66127
▁fl	-9.66177
ker	-9.66224
▁favor	-9.66257
▁ge	-9.66258
▁complex	-9.66266
▁exactly	-9.66274
▁noted	-9.66302
▁religious	-9.6642
ok	-9.66513
▁looks	-9.66574
▁armed	-9.66689
▁fans	-9.6682
▁rescue	-9.66936
▁weight	-9.66955
▁nearby	-9.67008
▁seek	-9.67044
term	-9.67158
▁language	-9.67241
▁marijuana	-9.67262
▁unit	-9.67408
▁hurricane	-9.67445
ious	-9.67462
ass	-9.67488
▁broke	-9.6751
▁please	-9.67536
for	-9.6757
▁jump	-9.67607
▁seat	-9.67746
▁richard	-9.67769
▁nominee	-9.67841
▁production	-9.67883
▁foundation	-9.67913
▁jones	-9.67919
▁cor	-9.67957
▁spot	-9.67981
▁ordered	-9.68068
▁shown	-9.68079
▁count	-9.68083
▁doctor	-9.68125
▁neighborhood	-9.68141
cy	-9.68144
over	-9.68172
▁bodies	-9.68182
▁certainly	-9.68228
▁ways	-9.68314
ists	-9.68454
▁proposal	-9.68552
▁appearance	-9.68555
ep	-9.68572
▁min	-9.68621
▁laws	-9.68637
▁notes	-9.68649
▁findings	-9.68684
▁wait	-9.68698
▁opportunity	-9.68781
▁ohio	-9.68786
▁square	-9.68965
▁freedom	-9.68977
▁ukraine	-9.68982
qu	-9.69045
▁parts	-9.69058
▁usa	-9.69064
cher	-9.6908
▁deaths	-9.69162
▁illegal	-9.69194
▁signed	-9.69212
ana	-9.6924
▁crew	-9.69245
▁wasn	-9.69262
▁mountain	-9.69286
vin	-9.69331
▁african	-9.69344
▁built	-9.69441
▁afghanistan	-9.69485
▁je	-9.6952
▁wearing	-9.69543
▁caught	-9.69579
▁powerful	-9.69591
▁determine	-9.69592
▁operations	-9.69656
▁nations	-9.69708
▁opinion	-9.69817
▁sold	-9.69862
▁herself	-9.69875
▁audience	-9.69961
istic	-9.69965
▁profile	-9.70025
rie	-9.70032
ru	-9.70058
uff	-9.70158
▁owner	-9.70238
▁rare	-9.70287
▁shift	-9.70295
▁suffered	-9.70352
▁culture	-9.70369
▁success	-9.70391
▁removed	-9.70403
▁takes	-9.70412
▁german	-9.70462
▁save	-9.70526
all	-9.7059
▁pair	-9.70668
▁35	-9.70694
▁band	-9.70697
air	-9.70714
ko	-9.70745
▁cold	-9.70789
▁heavy	-9.70791
▁insurance	-9.70819
▁normal	-9.70825
cent	-9.7083
▁influence	-9.70838
ou	-9.70839
set	-9.70873
▁thomas	-9.70907
▁bi	-9.70958
▁fellow	-9.70991
ther	-9.71083
▁carried	-9.71096
▁prince	-9.71141
izing	-9.71324
▁decade	-9.71388
▁identify	-9.71405
▁fund	-9.71419
▁particular	-9.71538
▁directly	-9.71555
▁ab	-9.71594
▁comp	-9.716
ification	-9.71695
▁rain	-9.71726
zo	-9.71727
▁treated	-9.7173
▁leadership	-9.71733
▁update	-9.7181
▁nature	-9.71847
▁clearly	-9.7187
ator	-9.71946
▁miss	-9.72259
rn	-9.72342
▁convicted	-9.72364
▁millions	-9.72373
chi	-9.72472
▁confirm	-9.72507
▁fun	-9.72638
▁authority	-9.72749
▁players	-9.72773
ung	-9.72788
▁begin	-9.7281
▁bbc	-9.72861
▁spring	-9.72939
▁growth	-9.72977
▁happening	-9.73012
▁saudi	-9.73037
▁gra	-9.7306
han	-9.73166
ology	-9.73175
▁physical	-9.73247
▁coverage	-9.73392
▁box	-9.73395
▁nu	-9.73397
▁concerned	-9.73452
▁lawyers	-9.73472
▁publicly	-9.73556
▁web	-9.73589
stein	-9.7368
▁bridge	-9.73691
▁lawmakers	-9.73693
▁tap	-9.73866
like	-9.73989
▁highest	-9.74088
20	-9.74135
ium	-9.74182
▁reflect	-9.7419
▁status	-9.74201
▁nov	-9.74309
▁pulled	-9.74321
▁launched	-9.74331
af	-9.74355
▁worst	-9.74356
ct	-9.74455
▁shut	-9.74624
▁su	-9.74691
▁worse	-9.74693
▁canada	-9.74713
▁wild	-9.74732
▁sleep	-9.74813
▁challenge	-9.74827
▁jury	-9.74893
▁management	-9.74915
▁rates	-9.74922
▁mor	-9.74946
▁pu	-9.7495
▁flag	-9.75104
▁cho	-9.75179
▁sept	-9.75224
▁surface	-9.75283
▁speed	-9.7529
wi	-9.7535
▁games	-9.7537
▁jersey	-9.75375
▁location	-9.75454
▁massive	-9.75547
ki	-9.75548
▁pop	-9.75555
▁beginning	-9.75582
▁design	-9.75605
▁steve	-9.75625
▁announcement	-9.75666
▁planet	-9.75672
head	-9.75705
▁citizens	-9.75735
eva	-9.75759
▁ver	-9.75786
▁tough	-9.75802
▁auto	-9.75916
▁pilot	-9.75929
▁80	-9.75973
▁ya	-9.76006
▁camera	-9.76008
▁germany	-9.76023
▁ensure	-9.76031
▁congressional	-9.7608
▁section	-9.76102
lor	-9.76105
▁finding	-9.76113
▁initial	-9.76138
zz	-9.76331
▁ne	-9.76339
ay	-9.76411
ris	-9.76427
▁yesterday	-9.7645
▁touch	-9.76515
down	-9.76579
▁older	-9.76597
▁dna	-9.76626
50	-9.76652
tin	-9.7668
▁famous	-9.76698
▁bro	-9.76769
▁warned	-9.76902
work	-9.76932
▁iphone	-9.76957
▁conducted	-9.77028
▁2007	-9.77041
:30	-9.77052
▁opening	-9.77078
her	-9.77085
▁completely	-9.77099
▁remained	-9.77157
par	-9.77184
ual	-9.7719
uring	-9.77227
▁false	-9.77287
ible	-9.77356
ear	-9.77392
▁eyes	-9.77411
ile	-9.7743
▁standard	-9.77551
▁eu	-9.77574
▁doubt	-9.77664
▁upon	-9.77681
▁slow	-9.77681
▁conduct	-9.77816
▁mental	-9.7782
net	-9.77829
▁ministry	-9.7785
▁standing	-9.77862
▁restaurant	-9.77891
▁display	-9.77923
▁alert	-9.77929
▁custody	-9.78039
▁award	-9.781
▁signal	-9.781
▁refused	-9.78116
▁suggest	-9.78121
▁conversation	-9.78189
rd	-9.78194
▁century	-9.78242
▁cur	-9.78247
▁actress	-9.78259
▁explain	-9.78263
rr	-9.78305
▁ke	-9.78392
▁oct	-9.78433
▁moon	-9.78445
▁struck	-9.78558
▁professional	-9.7858
▁ten	-9.78718
▁learn	-9.78801
▁roll	-9.78815
▁push	-9.78816
ip	-9.78849
▁israeli	-9.789
ನ್	-9.78909
ev	-9.78915
jo	-9.78925
▁peter	-9.78987
▁agencies	-9.79064
▁shortly	-9.7919
▁passengers	-9.79192
▁enter	-9.79222
▁reality	-9.79223
▁separate	-9.79329
▁mac	-9.79412
▁easy	-9.7943
10	-9.79438
nk	-9.79461
▁hol	-9.79463
▁sports	-9.79498
▁investigating	-9.79525
▁employee	-9.79553
ill	-9.79559
estimated	-9.79619
▁ni	-9.79785
▁cash	-9.79803
▁policies	-9.79892
▁pictures	-9.79941
▁jackson	-9.80022
vis	-9.80044
▁harm	-9.80089
▁dream	-9.80148
ez	-9.80179
▁costs	-9.80282
▁color	-9.80393
▁modern	-9.80407
▁supposed	-9.80488
▁highly	-9.80535
▁channel	-9.80552
▁committed	-9.80607
▁isis	-9.80655
▁environment	-9.80689
▁muslim	-9.80726
ib	-9.80727
▁rich	-9.80727
so	-9.80863
▁jo	-9.80908
▁speaker	-9.80987
hold	-9.81012
▁signs	-9.81127
▁fan	-9.81149
▁football	-9.81231
ries	-9.81245
▁drop	-9.81281
▁dollars	-9.81373
▁pan	-9.81377
og	-9.8142
▁britain	-9.81423
▁extra	-9.81502
▁cities	-9.81518
▁eastern	-9.81542
▁rally	-9.81666
▁bu	-9.81754
ash	-9.81788
▁placed	-9.81901
▁foot	-9.8197
▁schools	-9.8201
▁fully	-9.82027
▁discuss	-9.82162
▁bond	-9.82184
▁environmental	-9.82195
▁giant	-9.82273
▁carry	-9.82325
▁cra	-9.82405
▁70	-9.82458
▁marine	-9.825
▁various	-9.82549
▁suggests	-9.82556
▁ju	-9.82595
▁code	-9.82599
hy	-9.82648
▁sites	-9.82648
▁tour	-9.82657
▁dropped	-9.82692
▁greater	-9.82697
nc	-9.82705
▁explained	-9.82725
▁domestic	-9.8273
▁lose	-9.82789
▁agent	-9.82823
▁tro	-9.82896
▁join	-9.82946
▁protests	-9.82978
▁measures	-9.82986
▁partner	-9.82988
rk	-9.83008
▁las	-9.83075
▁90	-9.83117
low	-9.83309
▁eat	-9.83337
▁failure	-9.83378
cc	-9.83444
▁za	-9.83591
▁museum	-9.83622
▁sale	-9.83639
ea	-9.83687
▁soldiers	-9.83692
▁thinking	-9.83701
▁carrying	-9.83718
▁campus	-9.83757
▁names	-9.83806
▁prior	-9.83819
▁village	-9.83887
▁boat	-9.83902
ino	-9.83914
mail	-9.83927
▁fish	-9.83939
▁plea	-9.83994
▁writer	-9.84027
▁truth	-9.84056
wood	-9.8408
gue	-9.84213
▁reading	-9.84227
▁limit	-9.84309
▁mostly	-9.84324
▁double	-9.84374
▁patient	-9.84385
und	-9.84398
cri	-9.84412
▁def	-9.84436
▁aware	-9.84462
ign	-9.84508
▁broad	-9.84517
▁te	-9.84546
rin	-9.8457
▁victory	-9.8463
ky	-9.84775
▁episode	-9.84841
▁democrat	-9.84876
▁ball	-9.84881
▁license	-9.84908
▁isn	-9.84961
▁bl	-9.84999
▁accept	-9.85135
▁cal	-9.85191
▁colleagues	-9.85274
15	-9.85275
▁matt	-9.85315
long	-9.85319
▁admitted	-9.85337
▁wood	-9.85338
▁homes	-9.85492
tting	-9.85506
ever	-9.85544
▁fuel	-9.85608
▁determined	-9.85632
▁polls	-9.85686
▁seeing	-9.85713
▁familiar	-9.85769
▁reaction	-9.85772
▁affect	-9.85778
fer	-9.85795
▁linked	-9.85833
▁waiting	-9.85837
▁limited	-9.85858
▁rape	-9.85909
▁si	-9.85936
lar	-9.86027
▁pal	-9.86094
▁suspected	-9.86215
▁agents	-9.86243
▁expressed	-9.86283
▁believes	-9.86315
▁=	-9.86372
▁tests	-9.86411
▁africa	-9.86532
▁income	-9.86541
▁document	-9.86635
▁scandal	-9.86638
▁larger	-9.86714
▁unclear	-9.86919
▁phil	-9.87
▁wonder	-9.87031
▁assistant	-9.87045
▁responsibility	-9.87066
▁none	-9.87076
▁ram	-9.87148
▁45	-9.87164
tan	-9.87249
▁laugh	-9.87275
▁criticism	-9.87283
▁link	-9.87299
fo	-9.87331
▁aircraft	-9.87449
rant	-9.87461
▁virus	-9.87478
▁bed	-9.87485
gra	-9.87493
▁bear	-9.87607
▁task	-9.87707
▁rob	-9.87735
▁initially	-9.87745
▁adult	-9.8776
▁gets	-9.87785
▁starting	-9.8786
▁aug	-9.87878
▁pat	-9.87914
▁extremely	-9.87923
▁abortion	-9.88241
car	-9.88242
▁violent	-9.88312
▁designed	-9.88312
▁strike	-9.88368
▁cars	-9.88373
▁leg	-9.88393
ade	-9.88427
▁repeatedly	-9.88562
▁col	-9.88651
▁instantly	-9.88659
▁loved	-9.88709
▁nomination	-9.88747
▁joined	-9.88794
▁sought	-9.8887
▁fra	-9.88889
▁eric	-9.88901
▁continues	-9.88908
▁cap	-9.88939
▁cuts	-9.89009
▁machine	-9.89013
▁surgery	-9.89071
▁micro	-9.89079
▁lines	-9.8908
ox	-9.89141
▁parties	-9.89166
▁tend	-9.89196
▁internal	-9.89218
▁joint	-9.89368
▁miller	-9.8938
▁ch	-9.89401
sex	-9.89402
▁affected	-9.89481
▁dar	-9.89643
cl	-9.89673
▁barr	-9.89697
hu	-9.89784
11	-9.89838
▁amid	-9.89947
▁labor	-9.89993
▁surveillance	-9.90012
▁write	-9.9002
▁meant	-9.90034
▁royal	-9.9005
▁necessary	-9.90172
▁200	-9.90187
▁counter	-9.90201
▁usually	-9.90233
▁singer	-9.90273
▁regime	-9.90396
▁delivered	-9.90545
▁2006	-9.90572
▁wide	-9.90587
▁andrew	-9.90593
▁terrorist	-9.90666
▁chi	-9.90734
▁matters	-9.90773
▁ku	-9.90821
▁grow	-9.90837
▁sitting	-9.90892
▁complaint	-9.90909
▁australia	-9.91004
▁jet	-9.91012
▁sta	-9.9103
cul	-9.91099
▁difference	-9.91141
▁vo	-9.91155
▁messages	-9.91179
▁resources	-9.9118
▁cu	-9.9129
lum	-9.91312
▁sat	-9.9137
use	-9.91414
▁trouble	-9.91519
▁gen	-9.91568
▁adults	-9.91569
▁faces	-9.916
▁express	-9.91616
▁negative	-9.91617
▁file	-9.91782
▁dozens	-9.91822
ford	-9.91835
▁simple	-9.91836
▁pen	-9.91868
right	-9.91892
lie	-9.91931
▁presence	-9.91979
lic	-9.91989
▁emotional	-9.92001
gar	-9.92065
nce	-9.92067
▁gar	-9.92103
▁mu	-9.92128
▁tra	-9.92149
▁iowa	-9.92161
era	-9.92165
▁benefits	-9.92183
▁davis	-9.9223
ide	-9.92296
▁song	-9.92299
▁egypt	-9.923
▁stuff	-9.92333
lam	-9.92376
▁facility	-9.92412
▁trans	-9.92538
row	-9.92577
▁dad	-9.92594
▁crimes	-9.92597
ai	-9.92615
▁daniel	-9.92617
▁bio	-9.92633
▁turkey	-9.92702
cu	-9.92711
▁reference	-9.9278
▁heat	-9.92801
▁obtained	-9.92803
▁coach	-9.92812
▁declared	-9.92814
▁prosecutor	-9.92858
▁skin	-9.92943
▁pope	-9.92991
▁farm	-9.93007
-11	-9.93018
▁hate	-9.93043
▁boys	-9.93045
▁tri	-9.93057
▁reduce	-9.93209
▁william	-9.93339
▁recall	-9.93351
▁commercial	-9.93358
▁smoke	-9.93383
ture	-9.9344
▁reasons	-9.93474
▁programs	-9.93526
▁watching	-9.93569
▁beat	-9.93628
▁pr	-9.9371
▁involving	-9.93798
▁overall	-9.93807
+	-9.93817
▁severe	-9.93847
▁largely	-9.93913
ised	-9.93937
▁helping	-9.93956
▁mad	-9.9403
▁lady	-9.94105
▁quarter	-9.94204
▁planning	-9.94328
ologist	-9.94369
▁focused	-9.94371
▁colorado	-9.94373
▁bob	-9.94374
▁walked	-9.94383
▁unusual	-9.94388
▁command	-9.94396
▁fit	-9.94406
▁whatever	-9.94467
▁par	-9.94481
▁walking	-9.94505
▁han	-9.94531
cor	-9.94624
▁ti	-9.94644
▁facing	-9.94667
▁jeff	-9.94669
mar	-9.94749
▁lock	-9.94805
▁putting	-9.94811
▁parent	-9.94818
▁systems	-9.94955
art	-9.94979
▁argued	-9.95025
▁advance	-9.95043
и	-9.95074
▁structure	-9.95133
▁breaking	-9.95139
▁drinking	-9.9519
▁chain	-9.95278
▁ham	-9.95379
▁relations	-9.95418
▁funding	-9.95514
▁active	-9.95537
▁broken	-9.9557
▁potentially	-9.95579
▁wish	-9.9562
▁traditional	-9.95729
▁multi	-9.95856
▁redistribut	-9.95937
▁communications	-9.95949
oo	-9.95961
▁moscow	-9.96028
▁rod	-9.96048
▁dia	-9.96067
▁jr	-9.96101
▁bell	-9.9612
▁effective	-9.9617
▁ultimately	-9.96269
▁stars	-9.96379
▁gi	-9.96398
ong	-9.96449
▁winter	-9.9659
pel	-9.96614
▁sick	-9.96637
nes	-9.96719
▁onto	-9.96724
▁panel	-9.96802
▁twice	-9.96915
▁thoughts	-9.9695
town	-9.97042
▁solution	-9.97143
▁den	-9.97212
▁pot	-9.97242
▁privacy	-9.97257
▁rewritten	-9.97273
▁card	-9.97336
▁ride	-9.97439
▁rick	-9.97478
▁32	-9.97488
▁jim	-9.97534
▁feb	-9.9761
▁mon	-9.97625
▁sky	-9.97704
▁fed	-9.97775
▁votes	-9.97827
▁wounded	-9.97867
▁bid	-9.98064
▁ongoing	-9.98068
del	-9.98081
▁sad	-9.98141
▁everybody	-9.98141
▁rival	-9.98182
▁correct	-9.98196
▁nasa	-9.98213
99	-9.98236
▁offering	-9.98247
▁cia	-9.98268
▁missile	-9.98353
▁participants	-9.98404
▁map	-9.9843
▁decide	-9.98445
▁medicine	-9.98485
▁navy	-9.98493
▁sh	-9.985
▁possibly	-9.9852
duc	-9.98779
▁mobile	-9.98806
▁route	-9.98807
▁perry	-9.98814
▁genetic	-9.98849
▁hi	-9.9885
▁taxes	-9.9887
▁alive	-9.98872
▁cool	-9.98904
▁drink	-9.98938
о	-9.98997
▁knowledge	-9.9908
▁remarks	-9.99136
▁louis	-9.99184
▁steps	-9.99208
▁proposed	-9.99239
▁mag	-9.99288
▁possibility	-9.99313
▁shop	-9.99358
▁player	-9.99386
▁der	-9.9944
▁wedding	-9.99466
▁surprise	-9.99502
▁exist	-9.99597
▁liberal	-9.99624
nie	-9.99675
▁emails	-9.99783
▁mistake	-9.99807
▁michigan	-9.99877
▁arizona	-9.99975
top	-10.0002
▁counsel	-10.001
▁calif	-10.0013
▁mal	-10.0015
▁strategy	-10.0033
▁testing	-10.0034
▁feeling	-10.0034
www	-10.0039
▁politico	-10.0046
▁stra	-10.0048
board	-10.0049
▁attend	-10.005
▁vehicles	-10.0052
▁warrant	-10.0052
▁ken	-10.0052
▁amendment	-10.0052
▁conversations	-10.0055
▁critics	-10.0068
25	-10.0069
▁progress	-10.0072
▁trail	-10.0075
▁fourth	-10.0076
ration	-10.0079
cal	-10.0087
▁convention	-10.0094
▁wake	-10.0095
▁produce	-10.011
▁prepared	-10.0123
▁benefit	-10.0131
gi	-10.0134
▁developed	-10.0143
pping	-10.0153
▁moore	-10.0155
▁winner	-10.0161
19	-10.0169
▁generation	-10.0171
urged	-10.018
▁investment	-10.0181
▁q	-10.0183
▁successful	-10.0189
▁maintain	-10.0193
▁2005	-10.0198
▁deadly	-10.0201
ala	-10.0202
ರ	-10.0204
az	-10.0205
burg	-10.0207
▁pic	-10.0209
▁pregnant	-10.0209
▁dozen	-10.0213
▁tim	-10.0221
▁require	-10.0224
▁hopes	-10.0228
▁neighbor	-10.0233
▁seriously	-10.0233
▁joke	-10.0238
е	-10.0243
▁miami	-10.0243
ability	-10.0243
▁captured	-10.0244
▁faith	-10.0249
▁writes	-10.025
▁ci	-10.0254
▁title	-10.0258
▁blog	-10.0262
▁winning	-10.0268
▁elections	-10.0269
▁sam	-10.0277
▁streets	-10.0282
tes	-10.0295
win	-10.03
▁prove	-10.0303
str	-10.0305
ೆ	-10.0307
ik	-10.0309
▁dogs	-10.0316
▁des	-10.0321
▁outcome	-10.0323
ue	-10.0323
▁ce	-10.0325
▁weapon	-10.033
▁ok	-10.033
▁sanctions	-10.0331
▁bureau	-10.0332
▁tea	-10.0334
▁trend	-10.0334
▁grant	-10.0336
▁witness	-10.0343
▁discovery	-10.0344
▁im	-10.0348
▁direction	-10.035
▁cent	-10.0358
▁valley	-10.0363
▁op	-10.0368
▁healthy	-10.0372
▁39	-10.0373
▁fu	-10.0382
▁stephen	-10.0383
▁witnesses	-10.0388
▁background	-10.0393
▁ring	-10.0393
tv	-10.0394
du	-10.0402
▁attended	-10.0402
dle	-10.0407
▁elected	-10.0409
point	-10.0413
▁danger	-10.0417
▁younger	-10.0426
▁imagine	-10.0427
▁ki	-10.0427
▁lay	-10.043
gh	-10.0433
▁remove	-10.0433
40	-10.0439
▁chair	-10.044
ins	-10.0443
star	-10.0446
▁plastic	-10.0455
val	-10.0459
▁burn	-10.0464
▁jon	-10.0466
▁function	-10.0483
▁photograph	-10.0484
▁seattle	-10.0489
▁activists	-10.0495
fu	-10.0498
▁500	-10.0501
▁league	-10.0503
ick	-10.0503
▁attacked	-10.0506
▁indicate	-10.0512
▁acting	-10.0512
▁queen	-10.0515
▁trigger	-10.0515
▁footage	-10.0521
▁approved	-10.0522
ich	-10.0534
▁teacher	-10.0546
▁adviser	-10.0559
▁places	-10.0559
▁threats	-10.0561
press	-10.0566
▁attempted	-10.0572
▁collection	-10.0572
▁items	-10.0577
▁pull	-10.0582
▁businesses	-10.0591
▁mitt	-10.0592
▁nice	-10.0593
▁voted	-10.0602
▁row	-10.0603
▁happens	-10.0605
▁notice	-10.0614
▁tech	-10.0619
des	-10.0626
▁covered	-10.0631
▁ruled	-10.0634
state	-10.0635
▁produced	-10.0637
▁expert	-10.0639
▁blow	-10.0646
▁rubio	-10.0648
▁setting	-10.065
▁becoming	-10.0655
▁humans	-10.0659
aging	-10.0671
▁divorce	-10.0673
а	-10.0674
▁sarah	-10.0678
▁motor	-10.0681
▁guardian	-10.0682
▁neither	-10.0687
▁talked	-10.0691
▁entered	-10.0693
▁object	-10.0695
▁bat	-10.0702
▁voting	-10.0706
▁arms	-10.0711
▁deeply	-10.0717
▁features	-10.0722
▁zone	-10.0725
▁diet	-10.0731
▁disaster	-10.0731
related	-10.0733
▁scale	-10.074
▁para	-10.075
12	-10.0759
▁ill	-10.0761
▁treat	-10.0768
▁threatened	-10.0772
▁instance	-10.0776
▁mount	-10.0779
▁mary	-10.0783
load	-10.0783
13	-10.0789
▁serving	-10.0789
▁spark	-10.0795
▁qu	-10.08
▁wave	-10.0806
▁ob	-10.0812
▁del	-10.0815
▁thanks	-10.0819
wan	-10.0823
▁wind	-10.0827
▁fresh	-10.0827
sha	-10.0828
▁revenue	-10.0829
▁straight	-10.0835
▁deliver	-10.0839
▁shoot	-10.0845
▁myself	-10.0848
▁taylor	-10.0852
▁devices	-10.0858
▁leak	-10.0858
ski	-10.0864
▁quality	-10.0865
▁bought	-10.0867
law	-10.0872
▁experiment	-10.0879
▁fake	-10.0883
▁keeping	-10.0884
▁sentenced	-10.0894
▁investigate	-10.0895
▁mail	-10.0898
▁helicopter	-10.0899
ched	-10.0899
▁teen	-10.0899
▁absolutely	-10.09
▁arab	-10.0908
▁33	-10.0913
▁listen	-10.0917
▁english	-10.0918
▁located	-10.0918
▁knows	-10.0925
ella	-10.0927
▁explosion	-10.0931
▁beautiful	-10.0935
iff	-10.0941
gy	-10.0951
ight	-10.0951
▁georgia	-10.0955
▁holiday	-10.0968
sky	-10.0971
▁demand	-10.0973
▁memorial	-10.0974
▁plot	-10.0978
▁mccain	-10.0978
ix	-10.0984
dor	-10.0985
▁digital	-10.0985
▁roughly	-10.0989
app	-10.0991
▁regular	-10.0993
▁stood	-10.0993
▁controversial	-10.0996
▁pennsylvania	-10.0996
▁package	-10.0999
▁blast	-10.1002
▁fix	-10.1011
▁communities	-10.1013
▁christmas	-10.1015
▁india	-10.1024
▁ear	-10.1026
sp	-10.103
▁airlines	-10.1033
▁pakistan	-10.1034
▁christie	-10.1036
can	-10.1036
▁ambassador	-10.1037
▁statements	-10.1038
▁depend	-10.1041
17	-10.1049
▁fat	-10.1058
ng	-10.106
77	-10.106
▁guns	-10.1069
▁artist	-10.1073
▁views	-10.1073
▁settlement	-10.1075
wn	-10.1089
cur	-10.1091
▁platform	-10.1091
▁recorded	-10.1096
▁pointed	-10.1097
iz	-10.11
▁bag	-10.1104
▁tom	-10.1106
	-10.1109
ei	-10.1112
▁indeed	-10.1113
▁user	-10.1117
▁gang	-10.112
ا	-10.1122
▁hell	-10.1128
▁smart	-10.1133
▁exercise	-10.1135
▁intended	-10.114
nu	-10.1142
bar	-10.1142
uk	-10.1148
▁affairs	-10.115
▁bull	-10.1153
▁organ	-10.116
▁cells	-10.1161
▁books	-10.1165
14	-10.1166
▁massachusetts	-10.117
▁disorder	-10.1175
▁activities	-10.1185
▁catholic	-10.1185
▁hy	-10.1188
▁england	-10.119
▁immediate	-10.1192
18	-10.1193
ದ	-10.1193
ano	-10.1208
16	-10.121
▁lab	-10.1214
▁appropriate	-10.1215
mor	-10.1232
ery	-10.1233
▁cr	-10.1234
▁wal	-10.1239
▁widely	-10.124
▁funeral	-10.1245
ara	-10.1249
▁identity	-10.1251
▁execution	-10.1256
▁embassy	-10.1258
▁cosby	-10.1258
ude	-10.1264
▁promote	-10.1267
▁fri	-10.1275
ency	-10.1276
▁dev	-10.1278
bit	-10.1285
▁division	-10.1287
▁increasingly	-10.1289
▁bloomberg	-10.1289
▁plus	-10.129
▁allies	-10.1292
▁personnel	-10.1293
▁representative	-10.1293
▁insight	-10.1296
▁36	-10.1297
house	-10.1299
▁monitor	-10.1302
▁awards	-10.1306
▁patrol	-10.1311
▁worried	-10.1311
▁1,000	-10.1315
▁minor	-10.132
▁santa	-10.1322
▁profit	-10.1324
▁stress	-10.1332
bra	-10.1334
ari	-10.1346
wing	-10.1346
▁canadian	-10.1361
▁quick	-10.1365
▁palestinian	-10.1365
▁terrorism	-10.1371
▁teenager	-10.1374
▁fig	-10.1375
yl	-10.1376
▁improve	-10.1377
ette	-10.1378
▁2004	-10.1379
▁escape	-10.138
▁highway	-10.1384
▁scientific	-10.1385
▁dem	-10.1387
▁bottle	-10.1388
▁argue	-10.1395
phy	-10.1405
▁gift	-10.1409
▁academy	-10.1412
▁estate	-10.1414
▁injury	-10.1414
tre	-10.1416
▁tonight	-10.1418
▁jay	-10.1419
tru	-10.144
ff	-10.1441
▁regarding	-10.1448
5,000	-10.1449
▁faced	-10.1449
don	-10.1452
▁factor	-10.1454
ult	-10.1455
▁regional	-10.1458
▁gray	-10.1461
▁spin	-10.1461
▁steven	-10.1466
▁capitol	-10.1469
▁unable	-10.1473
▁encounter	-10.1473
▁raid	-10.1484
yn	-10.1485
▁shark	-10.1488
▁rec	-10.1507
▁smaller	-10.1507
▁consumers	-10.1511
▁journalist	-10.1511
▁sides	-10.1517
foot	-10.1523
▁brian	-10.1527
.3	-10.1529
▁palin	-10.1531
▁argument	-10.1531
▁banks	-10.1535
▁indian	-10.1535
▁grew	-10.1535
▁kid	-10.1538
▁perfect	-10.1547
kh	-10.1549
▁allowing	-10.155
▁willing	-10.155
▁values	-10.1552
▁conviction	-10.1557
▁blame	-10.1559
▁selling	-10.156
ular	-10.1562
▁providing	-10.1564
ju	-10.1566
▁stick	-10.1569
▁flu	-10.1575
ug	-10.1576
▁button	-10.1588
▁prices	-10.1589
▁generally	-10.1593
▁moments	-10.1597
▁jack	-10.16
mit	-10.1606
▁terror	-10.1612
cle	-10.1614
▁unique	-10.162
▁afghan	-10.1622
▁studio	-10.1633
▁_	-10.1637
▁meaning	-10.1639
▁climb	-10.1642
▁nfl	-10.1647
▁rocket	-10.1658
cha	-10.1661
▁0	-10.1666
▁rank	-10.1667
▁develop	-10.1688
▁tower	-10.1689
▁japanese	-10.1689
▁presented	-10.1694
▁jordan	-10.1695
eg	-10.1696
▁performed	-10.17
▁assad	-10.1706
▁enjoy	-10.1707
▁tree	-10.1707
▁bullet	-10.1716
▁anthony	-10.1716
▁factors	-10.1717
▁wear	-10.1721
▁forest	-10.1723
▁oscar	-10.1723
▁eating	-10.1724
mal	-10.1731
hn	-10.1736
american	-10.1738
▁rebels	-10.1743
hour	-10.1743
▁favorite	-10.1749
cker	-10.1749
▁fly	-10.1757
▁parliament	-10.1761
▁considering	-10.1764
▁libya	-10.1765
.2	-10.1766
▁brief	-10.1766
▁weinstein	-10.1772
▁figures	-10.1775
▁gathered	-10.1775
▁delay	-10.1779
▁hero	-10.1781
▁relatively	-10.1786
▁pushed	-10.1788
water	-10.1789
▁harris	-10.179
▁window	-10.1791
ji	-10.1794
my	-10.1799
▁owners	-10.1803
▁zu	-10.1806
▁fatal	-10.181
ew	-10.1812
▁y	-10.1812
▁ancient	-10.1814
▁targeted	-10.1817
▁dinner	-10.1821
▁frank	-10.1821
▁consumer	-10.1825
rated	-10.1825
▁ನ	-10.1831
ray	-10.1834
▁resolution	-10.1838
▁somebody	-10.1838
gle	-10.184
▁passenger	-10.1847
60	-10.1853
ify	-10.1855
▁glass	-10.1861
▁interesting	-10.1862
▁ii	-10.1862
▁closely	-10.1863
ken	-10.188
01	-10.189
gram	-10.1898
int	-10.19
▁degree	-10.1901
▁highlight	-10.1901
▁proud	-10.1904
▁bre	-10.1908
▁commander	-10.1916
▁mention	-10.1917
▁core	-10.1919
▁sending	-10.192
▁surrounding	-10.1922
▁ties	-10.1926
▁draw	-10.1938
▁choose	-10.194
▁bow	-10.194
quo	-10.1943
▁paying	-10.1945
▁aggressive	-10.1949
▁obviously	-10.1953
▁illness	-10.1956
▁gender	-10.1956
▁crack	-10.1965
nn	-10.1971
▁killer	-10.1972
▁transition	-10.1973
▁feature	-10.1981
▁founder	-10.1983
ock	-10.1989
▁bottom	-10.1996
▁rebel	-10.2004
▁cohen	-10.2004
▁alaska	-10.2006
▁bal	-10.2008
rich	-10.2015
▁construction	-10.2017
eb	-10.202
▁flow	-10.2022
▁francis	-10.2023
▁cup	-10.2025
▁gives	-10.2028
▁standards	-10.2036
cus	-10.2036
▁australian	-10.2038
▁operating	-10.204
ations	-10.2041
▁34	-10.2042
▁tape	-10.2044
▁era	-10.2048
▁understanding	-10.2052
▁equipment	-10.2054
▁contest	-10.2056
ane	-10.2057
▁advantage	-10.2061
▁timeline	-10.2064
▁label	-10.2068
▁summit	-10.2072
hl	-10.2076
ೀ	-10.2077
▁exposure	-10.2078
▁drone	-10.2078
▁suspects	-10.2079
ple	-10.2085
▁actual	-10.2089
hand	-10.209
▁acknowledged	-10.2092
month	-10.2094
▁score	-10.2094
▁raising	-10.2098
room	-10.2099
▁flying	-10.2101
▁anger	-10.2103
▁split	-10.2107
▁seal	-10.2112
▁engineer	-10.2112
▁2000	-10.2115
tle	-10.2119
pon	-10.2121
▁journalists	-10.2122
▁•	-10.2124
▁couldn	-10.2124
▁warm	-10.2127
▁avenue	-10.2129
▁oh	-10.2132
▁chamber	-10.2133
▁ali	-10.2133
run	-10.2134
aw	-10.2135
▁beijing	-10.2136
▁fashion	-10.214
-1	-10.2141
sel	-10.2146
▁handle	-10.2151
▁charles	-10.2153
▁shares	-10.2158
rate	-10.216
▁militants	-10.217
▁nobody	-10.217
▁hack	-10.2173
▁infant	-10.2182
▁closer	-10.2189
▁alternative	-10.2192
▁typically	-10.2192
▁hoping	-10.22
▁province	-10.2201
▁ballot	-10.2206
▁fer	-10.2207
▁unless	-10.2213
qua	-10.2213
▁error	-10.2214
▁pacific	-10.222
▁sand	-10.2222
▁prize	-10.2225
▁pool	-10.2228
▁pla	-10.2229
▁unknown	-10.2231
▁combat	-10.2235
▁walker	-10.2236
▁suspended	-10.2242
▁originally	-10.2243
▁predict	-10.2244
▁videos	-10.2254
▁native	-10.2256
▁specifically	-10.2267
▁approval	-10.2267
van	-10.2271
bri	-10.2271
fr	-10.2271
ani	-10.2272
▁scan	-10.2279
▁drove	-10.2282
▁picked	-10.2283
▁guide	-10.2292
▁tested	-10.2295
▁wage	-10.2296
▁hole	-10.2297
▁supported	-10.23
ೇ	-10.2309
▁resident	-10.2316
▁corp	-10.2325
ಲ	-10.2329
take	-10.233
▁comedy	-10.2331
▁grave	-10.2339
▁fill	-10.2342
.4	-10.2343
▁bringing	-10.2344
▁dress	-10.2345
▁alex	-10.2348
▁decisions	-10.2348
▁angry	-10.2354
▁otherwise	-10.2356
▁causing	-10.2359
▁numerous	-10.2361
lock	-10.2363
▁unfold	-10.2366
▁symptoms	-10.2371
bol	-10.2372
▁sessions	-10.2376
▁partners	-10.2377
▁style	-10.2379
▁ceremony	-10.2383
but	-10.2387
▁sample	-10.2389
▁cable	-10.239
hal	-10.2392
▁finance	-10.2392
uc	-10.2393
ain	-10.2394
▁stores	-10.2396
▁associate	-10.2398
rick	-10.2399
▁tre	-10.2399
▁rising	-10.24
▁kennedy	-10.2406
▁65	-10.2407
oy	-10.2408
▁suffering	-10.2412
▁coffee	-10.2413
▁tar	-10.2418
▁drew	-10.2423
▁guys	-10.2424
▁youtube	-10.2426
▁harry	-10.2429
▁shock	-10.2432
stone	-10.2433
▁unlikely	-10.2433
mat	-10.2434
war	-10.2435
▁option	-10.2439
▁balance	-10.244
▁assistance	-10.2447
▁detail	-10.245
▁cited	-10.2463
▁bas	-10.2464
▁fraud	-10.2464
gel	-10.2469
▁investors	-10.2472
▁adds	-10.2481
▁pin	-10.2482
▁supporting	-10.2484
▁differences	-10.2485
▁ಕ	-10.2486
73	-10.2487
▁method	-10.2489
▁milk	-10.249
▁defeat	-10.2491
▁75	-10.2498
lia	-10.2499
▁spotted	-10.2501
book	-10.2507
▁relatives	-10.2511
▁secure	-10.2514
▁samples	-10.2516
ition	-10.2521
org	-10.2522
▁ph	-10.2527
▁filing	-10.254
▁struggle	-10.2546
▁watched	-10.2557
▁cop	-10.2558
▁gunman	-10.256
▁basis	-10.2562
▁circumstances	-10.2566
▁emerged	-10.2566
▁counts	-10.2567
tel	-10.2569
▁48	-10.2569
uck	-10.2577
▁testimony	-10.2581
▁mcdonald	-10.2589
▁belief	-10.2589
▁conclusion	-10.2591
▁recording	-10.2594
ero	-10.2599
▁album	-10.2599
▁coalition	-10.2599
▁infection	-10.2603
▁occur	-10.2604
▁print	-10.2607
▁purchase	-10.2614
▁elizabeth	-10.2617
▁pregnancy	-10.2617
▁£	-10.262
▁val	-10.2622
▁sorry	-10.2622
▁losing	-10.2629
▁edge	-10.2633
▁globe	-10.2635
▁vegas	-10.2635
ire	-10.2637
24	-10.2637
▁satellite	-10.2655
▁citing	-10.2655
▁centre	-10.2658
▁arrive	-10.2665
▁rush	-10.2669
pr	-10.2673
▁graduate	-10.2673
▁dallas	-10.2675
▁funds	-10.2677
ili	-10.268
▁iranian	-10.2684
ory	-10.2684
▁bombing	-10.2689
▁adam	-10.2692
▁amazing	-10.2693
▁purpose	-10.2694
▁wilson	-10.2695
▁girlfriend	-10.27
▁bigger	-10.2703
▁est	-10.2705
▁tank	-10.2707
▁recovery	-10.271
mann	-10.271
▁spokesperson	-10.2714
▁sexually	-10.2718
.1	-10.2719
▁2001	-10.2721
▁immigrants	-10.2721
▁tragedy	-10.2724
▁detroit	-10.2729
▁sweet	-10.2732
ux	-10.2734
▁worker	-10.2735
▁stretch	-10.2737
/2	-10.2738
▁aim	-10.274
pm	-10.2742
▁visited	-10.2743
pt	-10.2745
▁300	-10.2745
ls	-10.2746
fall	-10.2747
▁electronic	-10.276
ria	-10.2762
bel	-10.2765
▁supply	-10.2768
▁buildings	-10.2775
▁mexican	-10.2775
▁directed	-10.2777
▁retired	-10.2777
▁gro	-10.2778
▁probe	-10.2783
▁surprised	-10.2792
▁defend	-10.2792
▁kevin	-10.2792
log	-10.2794
▁increasing	-10.2797
▁decline	-10.28
▁meat	-10.2805
▁dispute	-10.2812
ugh	-10.2816
▁boehner	-10.2817
▁towards	-10.2818
▁earthquake	-10.2819
lon	-10.282
▁represent	-10.2823
▁master	-10.2824
▁petition	-10.2825
▁worry	-10.2835
ston	-10.2838
form	-10.2842
▁correction	-10.2842
▁harassment	-10.2843
▁hunt	-10.2843
▁italy	-10.2846
▁bun	-10.2847
▁911	-10.2849
▁finish	-10.285
▁perform	-10.2861
▁italian	-10.2867
▁cer	-10.2867
▁deserve	-10.2868
▁37	-10.2869
rad	-10.2876
63	-10.2877
▁managed	-10.2886
▁creating	-10.2893
▁nurse	-10.2895
hop	-10.2898
▁obamacare	-10.2902
▁negotiations	-10.2904
rc	-10.2911
▁metal	-10.2912
▁theater	-10.2924
45	-10.2927
▁wisconsin	-10.2937
▁referring	-10.2937
▁interests	-10.2943
▁extreme	-10.2943
▁mix	-10.2944
▁distance	-10.2945
▁destroyed	-10.2945
▁apparent	-10.2945
ient	-10.2946
▁contain	-10.2951
▁implement	-10.2952
▁racial	-10.2953
74	-10.2953
▁utah	-10.2966
▁wouldn	-10.2967
▁feed	-10.2968
▁pack	-10.2974
fl	-10.2979
att	-10.299
▁yu	-10.2996
▁1990	-10.3
▁mars	-10.3003
▁historic	-10.3004
▁silver	-10.3005
▁listed	-10.3007
▁criticized	-10.3012
▁estimates	-10.3016
▁interested	-10.3017
pen	-10.3018
▁shape	-10.3019
▁experienced	-10.3021
clu	-10.3021
▁easily	-10.3024
gr	-10.3027
▁anonymous	-10.3034
61	-10.3043
called	-10.3046
▁rejected	-10.3053
▁gingrich	-10.3055
▁rat	-10.3058
▁penn	-10.3066
ola	-10.3066
▁fighters	-10.3071
din	-10.3077
ome	-10.308
▁turning	-10.3081
▁mill	-10.3091
▁arabia	-10.3098
▁mel	-10.3098
ena	-10.31
▁confident	-10.3102
mate	-10.311
▁vast	-10.3113
▁alabama	-10.3114
▁basic	-10.3117
▁winds	-10.3119
▁corporate	-10.3122
▁software	-10.3122
▁insist	-10.3124
▁interviews	-10.3127
▁promised	-10.3129
▁hum	-10.3132
▁diplomatic	-10.3138
▁38	-10.3142
▁height	-10.3142
▁options	-10.3143
▁bright	-10.3146
bla	-10.315
▁apply	-10.3153
▁rev	-10.3154
▁prominent	-10.3162
sch	-10.3164
▁guess	-10.3166
▁flat	-10.3166
▁wine	-10.3168
nne	-10.3168
▁filled	-10.3179
▁concluded	-10.318
▁exposed	-10.3183
▁harvey	-10.3184
▁behalf	-10.3186
▁turns	-10.3193
▁philadelphia	-10.3194
▁shell	-10.3196
▁claiming	-10.3205
▁taliban	-10.3205
▁iraqi	-10.321
▁memory	-10.3215
▁prohibit	-10.3216
bed	-10.3216
avi	-10.3223
▁receiving	-10.3224
▁airline	-10.3225
▁controversy	-10.3227
ato	-10.3227
▁breast	-10.3227
▁boost	-10.3235
▁topics	-10.3236
cap	-10.3238
▁disney	-10.3239
▁commitment	-10.324
▁formal	-10.3241
▁iron	-10.3246
referred	-10.3246
put	-10.3247
▁thus	-10.3252
▁longtime	-10.3252
▁entertainment	-10.3256
▁swift	-10.3262
▁golden	-10.3277
▁neighbors	-10.3278
elect	-10.3278
▁worldwide	-10.328
▁tweets	-10.3282
▁organizations	-10.3284
▁percentage	-10.3292
▁continuing	-10.3294
▁constitution	-10.3297
▁veteran	-10.3298
▁indicated	-10.3304
▁significantly	-10.3304
▁olympic	-10.3307
▁stands	-10.3307
▁corner	-10.3312
▁sharp	-10.3314
▁truly	-10.3314
▁causes	-10.3319
cru	-10.3323
▁upset	-10.3323
bre	-10.3328
▁stolen	-10.3329
▁celebrity	-10.3333
▁possession	-10.3341
▁roger	-10.3343
▁collect	-10.3344
▁hide	-10.3353
▁joseph	-10.3358
▁moral	-10.3359
▁questioned	-10.3365
▁wash	-10.3371
▁requires	-10.3381
▁ty	-10.3386
▁comm	-10.339
▁margin	-10.3397
▁vessel	-10.3398
▁headquarters	-10.3401
▁extend	-10.3402
22	-10.3405
xi	-10.3417
▁advice	-10.3417
▁offers	-10.3419
▁concert	-10.342
▁exit	-10.342
▁que	-10.3427
▁engaged	-10.3429
▁novel	-10.3432
▁gulf	-10.3432
▁deputies	-10.3434
▁yard	-10.3437
▁civilians	-10.3437
▁entirely	-10.3438
▁allen	-10.344
▁jason	-10.3442
aff	-10.3444
▁2003	-10.3445
▁discussion	-10.3455
▁nick	-10.3455
▁maria	-10.3458
▁shooter	-10.3462
▁introduced	-10.3462
▁consequences	-10.3475
▁impossible	-10.3475
ini	-10.3478
▁tip	-10.3478
▁attorneys	-10.3482
oma	-10.3486
▁explosive	-10.3489
▁provision	-10.3495
▁assist	-10.3496
▁net	-10.3496
▁clinic	-10.3497
▁42	-10.3499
▁random	-10.3502
runner	-10.3504
▁flash	-10.3504
ಯ	-10.3508
▁developing	-10.3509
ಗ	-10.3511
▁suggesting	-10.3514
tar	-10.3519
zy	-10.3526
▁observed	-10.3528
▁comey	-10.353
▁rein	-10.3535
▁gon	-10.3538
▁spirit	-10.3539
een	-10.354
80	-10.3544
▁quot	-10.3545
▁classified	-10.3547
ically	-10.355
▁49	-10.3552
▁except	-10.3553
▁yahoo	-10.3556
▁allows	-10.3561
▁reveal	-10.3562
▁competition	-10.3564
▁movies	-10.3565
▁circle	-10.3568
▁rap	-10.3573
▁youth	-10.3579
▁confidence	-10.3581
pri	-10.3586
ese	-10.3592
▁compound	-10.3595
ya	-10.3596
▁ron	-10.3598
dis	-10.3606
▁kate	-10.3616
▁cheer	-10.3623
▁ticket	-10.3626
▁detailed	-10.3628
▁connect	-10.3629
▁politicians	-10.3629
lb	-10.3632
▁contacted	-10.3632
▁participate	-10.3634
var	-10.3636
▁shelter	-10.3637
▁flood	-10.364
▁shi	-10.3643
▁established	-10.3645
▁changing	-10.3649
▁insisted	-10.3652
▁mall	-10.3652
▁passionate	-10.3655
▁theory	-10.3656
▁welcome	-10.3657
.9	-10.3658
je	-10.3659
▁oklahoma	-10.3663
▁graham	-10.3664
▁editing	-10.3671
▁ford	-10.3672
▁hawaii	-10.3674
▁matthew	-10.3674
▁recruit	-10.3685
▁lie	-10.3687
▁producer	-10.3694
▁markets	-10.3694
▁bail	-10.3696
ball	-10.3696
08	-10.3697
itz	-10.3699
▁paint	-10.37
dr	-10.3701
▁egyptian	-10.3703
▁nazi	-10.3703
▁neck	-10.3705
ral	-10.3708
▁clo	-10.3713
▁assess	-10.3714
▁destroy	-10.3716
wr	-10.3717
▁zero	-10.3717
▁recalled	-10.3717
▁switch	-10.3722
wl	-10.3724
▁sugar	-10.3726
79	-10.373
▁hampshire	-10.373
▁gene	-10.3734
▁pentagon	-10.3739
lip	-10.3741
▁jennifer	-10.3742
ä	-10.3745
▁buried	-10.3748
▁uber	-10.3755
▁zoo	-10.3757
▁substance	-10.3759
▁oregon	-10.3759
bro	-10.3761
▁intention	-10.3766
▁strip	-10.3767
ada	-10.3789
▁missouri	-10.3793
▁remaining	-10.38
▁tiny	-10.3802
▁justin	-10.3803
▁charlie	-10.3808
fully	-10.3811
▁ski	-10.3812
▁transportation	-10.3816
▁tragic	-10.3816
▁discussed	-10.3818
▁yo	-10.3819
▁heavily	-10.3822
▁commissioner	-10.3824
▁permanent	-10.3825
cr	-10.3829
▁ny	-10.3831
▁dating	-10.3833
▁bacteria	-10.3834
▁peak	-10.3834
▁nato	-10.3835
itch	-10.3842
▁tens	-10.3842
▁birthday	-10.385
▁jane	-10.3851
uch	-10.3852
▁therefore	-10.3856
ita	-10.3859
▁stated	-10.3861
▁penalty	-10.3873
▁draft	-10.3874
▁pray	-10.3877
▁motion	-10.3882
▁cooper	-10.3882
▁babies	-10.3886
▁alarm	-10.3889
▁cruise	-10.3891
▁challenges	-10.3894
▁session	-10.3894
▁neuro	-10.3896
nder	-10.3897
▁firing	-10.3898
▁unlike	-10.3901
▁char	-10.3902
▁atlanta	-10.3902
shi	-10.3909
▁sc	-10.3912
▁definitely	-10.3914
▁replace	-10.3915
▁jewish	-10.3923
▁brothers	-10.3926
▁risks	-10.3926
▁laden	-10.3927
▁survived	-10.3931
▁rice	-10.3932
▁housing	-10.394
▁bowl	-10.3944
itt	-10.3949
▁facts	-10.3954
▁slightly	-10.3958
▁kerry	-10.3966
▁damaged	-10.3973
▁instagram	-10.3975
▁bor	-10.3975
▁strength	-10.3977
▁rent	-10.3981
▁presidency	-10.3987
▁feels	-10.3989
▁relevant	-10.4001
▁rifle	-10.4001
▁recovered	-10.4005
▁jean	-10.4011
▁downtown	-10.4012
▁pleaded	-10.4013
berry	-10.4016
▁strange	-10.4018
▁fre	-10.402
▁mouth	-10.4026
▁promise	-10.4027
▁ser	-10.4029
▁zimmerman	-10.4033
more	-10.4033
▁wildlife	-10.4034
21	-10.4041
78	-10.4044
▁pounds	-10.405
yan	-10.4054
▁dismissed	-10.4065
▁parking	-10.4065
▁crazy	-10.4069
▁rid	-10.407
ean	-10.4087
▁contrast	-10.4092
▁kick	-10.4093
kins	-10.4097
ose	-10.4098
▁pushing	-10.4099
/2018	-10.41
▁apart	-10.4106
▁horse	-10.4108
▁pur	-10.4109
▁inform	-10.411
ement	-10.4111
▁10,000	-10.4113
▁vision	-10.4116
▁ebola	-10.4118
▁sport	-10.412
▁kiss	-10.4123
▁provides	-10.4128
▁fin	-10.4136
▁completed	-10.4137
▁euro	-10.4137
▁dealing	-10.4138
▁ray	-10.4145
▁collected	-10.4147
▁requests	-10.4149
▁atlantic	-10.4154
▁headed	-10.4154
▁manhattan	-10.4157
▁constitutional	-10.4168
bin	-10.4171
los	-10.4179
▁greatest	-10.4181
▁pursue	-10.4184
▁citizen	-10.4187
▁publication	-10.4189
2017	-10.4192
▁sur	-10.4196
▁strongly	-10.4198
▁hover	-10.4203
▁accepted	-10.4204
▁deficit	-10.4204
▁upper	-10.4206
vy	-10.4212
▁solar	-10.4222
▁pose	-10.4223
▁initiative	-10.4227
▁client	-10.4227
▁fewer	-10.4228
▁prosecution	-10.4228
ridge	-10.4231
▁jong	-10.4231
▁spanish	-10.4235
▁ren	-10.4243
▁aimed	-10.4254
▁opt	-10.4258
▁dam	-10.4258
▁biden	-10.4267
ore	-10.427
▁connected	-10.4271
▁illinois	-10.4273
news	-10.4273
▁mcconnell	-10.4285
▁hired	-10.4288
nan	-10.429
▁qua	-10.4292
cip	-10.4293
▁boss	-10.4297
▁2002	-10.4297
▁loud	-10.43
▁encourage	-10.4305
▁cro	-10.431
print	-10.4312
▁sounds	-10.4312
н	-10.4315
▁talent	-10.4319
▁fled	-10.432
▁runs	-10.4322
▁length	-10.4323
▁newly	-10.4324
▁aides	-10.4325
▁memo	-10.4325
▁cloud	-10.4328
▁crashed	-10.4336
▁asia	-10.4338
▁44	-10.4339
▁mil	-10.4339
75	-10.4341
▁permit	-10.4341
▁alter	-10.4343
gal	-10.4346
▁falling	-10.4348
▁informed	-10.4351
ax	-10.4351
▁lan	-10.4354
▁mess	-10.4355
▁consult	-10.4355
▁minnesota	-10.4357
▁kris	-10.436
▁lt	-10.4369
▁intense	-10.437
▁branch	-10.4373
▁und	-10.4374
▁mine	-10.4374
lk	-10.4374
▁relief	-10.4375
▁occasion	-10.4377
▁fame	-10.438
care	-10.4383
▁outbreak	-10.4393
table	-10.4394
elle	-10.4395
▁mentioned	-10.4405
▁clip	-10.4406
▁registered	-10.4406
class	-10.4409
▁41	-10.4409
▁roof	-10.4413
▁minute	-10.4414
▁max	-10.442
▁quiet	-10.4421
▁shocked	-10.4423
lf	-10.4424
cycl	-10.4426
▁tam	-10.4428
meter	-10.4431
▁relative	-10.4433
ough	-10.4436
▁letters	-10.4436
▁announce	-10.4439
▁minimum	-10.4439
face	-10.444
▁colon	-10.4441
fin	-10.4447
born	-10.445
pha	-10.4453
ica	-10.4455
▁commit	-10.4458
▁austin	-10.4467
▁scar	-10.4468
▁opposed	-10.4495
▁hay	-10.4497
▁55	-10.4499
▁minority	-10.4511
▁passing	-10.4511
▁explanation	-10.4513
▁narrow	-10.4519
▁assessment	-10.4519
▁searching	-10.4521
illa	-10.4522
▁equal	-10.4523
▁desire	-10.4523
▁variety	-10.4525
▁hunter	-10.4526
▁waste	-10.4531
▁represents	-10.4532
▁strikes	-10.4533
▁beck	-10.4536
▁regulations	-10.4544
▁consistent	-10.4546
▁reply	-10.4566
▁gap	-10.4566
lit	-10.4569
▁analysts	-10.4572
▁anybody	-10.4574
▁leads	-10.4574
▁forecast	-10.4574
▁wing	-10.4575
29	-10.4579
▁appeals	-10.4581
▁approximately	-10.4587
▁mile	-10.4587
▁palm	-10.4597
▁smoking	-10.4608
▁belong	-10.4609
cer	-10.4609
▁ads	-10.4621
▁43	-10.4623
▁contained	-10.4626
▁nevada	-10.4627
cigarette	-10.463
▁terrible	-10.463
▁steel	-10.4631
▁extensive	-10.4633
▁cameras	-10.4643
▁banned	-10.4645
▁portion	-10.4647
▁remote	-10.4649
play	-10.4652
35	-10.4653
▁gotten	-10.4659
▁journey	-10.4664
▁territory	-10.4667
▁context	-10.4667
▁compromise	-10.467
dra	-10.4673
▁duty	-10.4674
minute	-10.4675
▁rub	-10.4677
▁clark	-10.4678
▁louisiana	-10.468
▁chest	-10.4682
▁owned	-10.4685
▁learning	-10.4688
▁anchor	-10.4689
▁senators	-10.4692
ington	-10.4697
▁calm	-10.47
▁deny	-10.4701
▁telephone	-10.4702
▁authors	-10.4707
iest	-10.4707
▁baltimore	-10.4708
▁indiana	-10.471
▁throw	-10.4713
▁attempts	-10.4715
▁failing	-10.4716
election	-10.4718
▁weekly	-10.4718
▁heading	-10.4719
aa	-10.4722
▁festival	-10.473
▁maryland	-10.4732
view	-10.4739
▁100,000	-10.4741
glo	-10.4744
▁activist	-10.4744
▁depression	-10.4746
▁ze	-10.4747
▁detained	-10.4749
▁tall	-10.4751
▁pill	-10.4752
▁teams	-10.4754
▁analyst	-10.4757
▁carbon	-10.4758
▁religion	-10.4761
▁signature	-10.4761
prompted	-10.4766
▁orange	-10.4767
▁fisher	-10.4767
▁mueller	-10.4768
▁carter	-10.4771
84	-10.4773
▁earn	-10.4777
▁grown	-10.4787
▁anderson	-10.4789
▁lane	-10.479
▁breach	-10.4791
▁estimate	-10.4796
್	-10.4796
fund	-10.4799
▁survive	-10.48
:00	-10.4803
▁10-	-10.4806
▁earned	-10.4808
▁targets	-10.4813
▁correspondent	-10.4813
/1	-10.4815
▁cyber	-10.4816
▁models	-10.4817
pan	-10.4821
▁restrict	-10.4824
▁1980	-10.4828
▁racist	-10.4831
▁closing	-10.4832
gs	-10.4832
▁christopher	-10.4834
▁cultural	-10.4837
list	-10.4839
▁locations	-10.4849
▁cave	-10.4854
hon	-10.4861
pre	-10.4862
▁offensive	-10.4862
▁interviewed	-10.4869
eh	-10.4871
fil	-10.4871
▁ted	-10.4881
roy	-10.4883
aries	-10.4887
▁kansas	-10.4888
nda	-10.4888
▁bet	-10.4889
▁salt	-10.489
▁stake	-10.489
▁shots	-10.4891
▁moderate	-10.4892
▁frequently	-10.49
▁resort	-10.4901
bert	-10.4903
page	-10.4905
▁teachers	-10.4907
▁nsa	-10.4913
▁customer	-10.4913
▁hor	-10.4918
▁drama	-10.4918
▁recognize	-10.492
sol	-10.4921
▁conservatives	-10.4933
▁representatives	-10.4934
▁diego	-10.4935
▁finger	-10.4938
rri	-10.4941
▁tied	-10.4948
cum	-10.4951
▁michelle	-10.4955
▁compete	-10.4956
▁hang	-10.4961
▁regret	-10.4962
▁stream	-10.4962
▁hat	-10.4963
▁cops	-10.4966
▁types	-10.4966
▁describe	-10.4968
ute	-10.4968
▁ideas	-10.4972
▁muslims	-10.4972
▁46	-10.4973
▁hoped	-10.4974
ipped	-10.4978
▁ger	-10.498
▁returning	-10.4984
▁fifth	-10.4984
23	-10.4987
▁holds	-10.4988
zer	-10.4989
▁harvard	-10.499
degree	-10.4992
▁prof	-10.4997
,500	-10.5001
▁reputation	-10.5003
▁carrier	-10.5004
▁div	-10.5006
▁widespread	-10.5013
▁refugees	-10.5014
▁suddenly	-10.5016
post	-10.5017
▁yemen	-10.5017
▁pieces	-10.5018
tte	-10.5018
▁advertising	-10.5023
▁ukrainian	-10.5023
▁exclusive	-10.5025
▁alongside	-10.5025
▁woods	-10.5025
▁radical	-10.5027
▁funny	-10.5032
▁repeated	-10.5041
▁trading	-10.5042
-10	-10.5044
▁basically	-10.5044
▁gmt	-10.5044
▁networks	-10.5045
▁columbia	-10.5052
▁warren	-10.5052
▁stewart	-10.5055
▁accusations	-10.5063
held	-10.5068
▁explains	-10.5071
▁principle	-10.5071
▁react	-10.5076
▁trees	-10.5077
▁expensive	-10.5078
▁mystery	-10.5078
▁joy	-10.5082
82	-10.5083
away	-10.5085
rum	-10.5094
▁boyfriend	-10.5094
▁maximum	-10.5094
▁wound	-10.5095
▁noticed	-10.5101
▁reward	-10.5102
▁reid	-10.5103
▁smile	-10.5106
▁homicide	-10.5107
▁brutal	-10.5108
▁custom	-10.5112
▁heads	-10.5116
▁tan	-10.5117
cro	-10.5123
▁officially	-10.5126
empt	-10.5134
char	-10.5143
▁substantial	-10.5149
▁capture	-10.515
ob	-10.5152
▁technique	-10.5159
▁inches	-10.5165
she	-10.5173
▁lying	-10.5177
▁jen	-10.5179
▁saving	-10.518
▁ann	-10.518
▁summari	-10.5181
▁soft	-10.5183
▁granted	-10.5184
▁reduced	-10.519
gli	-10.5198
▁qui	-10.5201
▁punishment	-10.5201
▁facilities	-10.5202
tak	-10.5203
▁morgan	-10.5205
▁lunch	-10.5206
▁tight	-10.521
las	-10.5213
hood	-10.5214
▁repeal	-10.5215
▁https	-10.5218
▁shore	-10.522
▁editorial	-10.5224
▁testified	-10.5228
▁thr	-10.5237
▁tear	-10.5238
▁haven	-10.5238
▁inmates	-10.5241
▁foods	-10.5245
65	-10.5252
▁shopping	-10.5256
á	-10.5265
▁temperature	-10.5265
▁breath	-10.5268
▁agenda	-10.5273
nic	-10.5273
ici	-10.5274
▁peaceful	-10.5276
▁centers	-10.5279
ef	-10.5284
▁flights	-10.5287
▁spoken	-10.5292
▁procedure	-10.5292
▁outrage	-10.5294
▁reserve	-10.5297
▁pump	-10.5298
▁drivers	-10.5302
▁locked	-10.5303
▁snowden	-10.531
▁150	-10.5312
▁operate	-10.5314
▁sin	-10.5316
▁positions	-10.5317
▁exhibit	-10.5318
py	-10.5319
▁solve	-10.5319
lton	-10.532
mes	-10.5322
▁collapse	-10.5323
▁spain	-10.5326
▁turkish	-10.5328
▁gre	-10.5328
▁pac	-10.533
▁establish	-10.5331
tom	-10.5332
▁chose	-10.5334
ison	-10.5336
▁missed	-10.5337
▁kra	-10.5341
▁personally	-10.5342
▁veterans	-10.5343
▁log	-10.5345
▁felony	-10.5349
▁lets	-10.535
▁sir	-10.5367
▁household	-10.5367
ado	-10.5368
▁complaints	-10.5368
graph	-10.5369
free	-10.537
▁prevention	-10.5373
▁sight	-10.5373
getty	-10.5376
37	-10.5382
▁totally	-10.5391
▁clinical	-10.5392
▁realized	-10.54
▁whi	-10.5401
▁answers	-10.5405
▁cdc	-10.5408
▁republic	-10.5414
▁6986	-10.5415
▁distribution	-10.5428
▁captain	-10.543
▁realize	-10.5432
yer	-10.5433
▁celebrate	-10.5434
▁pitch	-10.5445
▁taste	-10.5446
hai	-10.545
▁interior	-10.5459
mis	-10.5459
▁elsewhere	-10.5462
▁punch	-10.5462
▁distinct	-10.5472
70	-10.5477
exp	-10.5477
bling	-10.5477
▁proceed	-10.5478
▁visiting	-10.5482
▁kentucky	-10.5482
cho	-10.5482
▁47	-10.5485
▁intervention	-10.5486
▁incidents	-10.5486
▁remind	-10.5486
▁tactic	-10.5487
27	-10.5489
▁regard	-10.5491
▁span	-10.5491
▁accurate	-10.5492
▁spy	-10.5495
▁tennessee	-10.5496
▁practices	-10.5498
▁abu	-10.5499
▁ending	-10.5502
▁trace	-10.5503
▁yourself	-10.5506
▁windows	-10.5508
▁hip	-10.5508
oid	-10.5512
▁struggling	-10.5519
▁surround	-10.552
▁viewers	-10.5521
▁chase	-10.5521
▁patrick	-10.553
▁schedule	-10.5532
▁fruit	-10.5533
week	-10.5543
▁fiscal	-10.5543
▁fault	-10.5552
▁extended	-10.556
▁involvement	-10.5562
76	-10.5563
▁400	-10.5564
▁meetings	-10.5567
▁temperatures	-10.5567
▁evan	-10.5568
▁orlando	-10.5571
▁firefighters	-10.5572
▁detectives	-10.5582
▁viral	-10.5582
▁sponsor	-10.5588
▁debris	-10.5588
▁anniversary	-10.5591
▁95	-10.5599
gin	-10.5602
▁aleppo	-10.5605
▁prospect	-10.5605
▁weak	-10.5611
arian	-10.5613
▁wolf	-10.5613
/2016	-10.5615
ans	-10.5615
▁homeland	-10.5621
▁addressed	-10.5624
style	-10.5626
▁fail	-10.5632
▁disappeared	-10.5633
▁alexander	-10.5636
▁detect	-10.5644
▁rand	-10.5645
▁blamed	-10.5646
▁thinks	-10.5647
mas	-10.5648
rous	-10.5654
▁diagnosed	-10.5656
▁democracy	-10.5658
▁combined	-10.5661
▁survivors	-10.5664
▁dur	-10.5665
▁leaves	-10.5667
▁transport	-10.5667
▁sec	-10.5669
▁lewis	-10.567
▁engine	-10.5672
▁compare	-10.5676
▁boo	-10.5676
▁verdict	-10.5677
▁communication	-10.5678
▁lit	-10.5679
▁sharing	-10.568
▁ash	-10.5682
mart	-10.5683
▁drill	-10.5684
▁aide	-10.5686
▁dick	-10.5698
▁buying	-10.57
▁tmz	-10.5701
▁twin	-10.5702
▁bon	-10.5705
▁barb	-10.5705
▁traveling	-10.5712
▁seized	-10.5717
▁aside	-10.5717
▁weigh	-10.5723
▁physician	-10.5725
▁transform	-10.5726
ened	-10.5726
▁meal	-10.5732
▁garden	-10.5734
▁hills	-10.5741
▁hong	-10.5742
test	-10.5748
rb	-10.5748
▁discover	-10.5752
▁inappropriate	-10.5753
▁sim	-10.5754
▁soldier	-10.5759
▁ye	-10.5761
▁speaks	-10.5764
▁delivery	-10.577
04	-10.5774
▁drawn	-10.5774
▁marked	-10.5774
▁les	-10.5779
▁cameron	-10.5781
▁protected	-10.5787
▁prepare	-10.5792
▁stayed	-10.5794
▁plants	-10.5797
▁concept	-10.5797
▁amy	-10.5799
▁fears	-10.5803
▁orbit	-10.5807
▁easier	-10.5809
gate	-10.581
▁films	-10.5811
▁knowing	-10.5812
▁unfortunately	-10.582
▁quoted	-10.5823
▁bone	-10.5824
26	-10.5824
▁researcher	-10.5833
▁greek	-10.5834
▁statue	-10.5837
ace	-10.5842
▁suffer	-10.5844
▁marketing	-10.5846
▁bru	-10.5853
▁conspiracy	-10.5854
bul	-10.5854
▁lion	-10.5856
▁greg	-10.5856
▁degrees	-10.5864
▁gla	-10.5865
▁denver	-10.587
▁finished	-10.5875
▁pattern	-10.5875
▁innocent	-10.5875
▁mere	-10.5878
31	-10.5881
life	-10.5883
▁hook	-10.5886
▁netflix	-10.5886
▁gross	-10.5893
▁investigated	-10.59
▁transfer	-10.59
▁stuck	-10.59
▁lin	-10.59
▁dry	-10.5905
▁ferguson	-10.5907
nal	-10.5907
▁dance	-10.5907
▁comparison	-10.5908
05	-10.5908
▁employer	-10.591
▁root	-10.5911
▁visitors	-10.5914
▁aspect	-10.5918
▁waters	-10.592
▁cycle	-10.592
▁characters	-10.5923
▁refer	-10.5924
▁blind	-10.5925
▁essentially	-10.5928
ama	-10.5938
▁opponents	-10.5948
▁insider	-10.595
▁adjust	-10.595
▁cutting	-10.5951
▁symbol	-10.5952
▁regularly	-10.5953
47	-10.5956
▁santorum	-10.5964
▁papers	-10.5965
▁terrorists	-10.5966
lay	-10.5967
▁dump	-10.5971
ref	-10.5976
▁invited	-10.5979
▁bathroom	-10.5982
mark	-10.5983
tex	-10.5984
ising	-10.5985
▁monitoring	-10.5985
▁stepped	-10.5986
81	-10.5988
▁executives	-10.5992
▁uses	-10.5994
▁sensitive	-10.5994
▁acts	-10.5997
▁roman	-10.5998
▁threatening	-10.5999
▁guarantee	-10.5999
▁permission	-10.6008
cia	-10.6015
wh	-10.6018
▁golf	-10.6023
▁kardashian	-10.6024
aunt	-10.6026
▁\	-10.6027
▁begun	-10.6032
▁apology	-10.6034
path	-10.6041
▁gaza	-10.6043
pat	-10.6046
▁vladimir	-10.6049
lee	-10.6052
atory	-10.6054
▁enable	-10.6066
▁bones	-10.6067
▁vulnerable	-10.6067
▁ross	-10.6072
▁classic	-10.6073
▁prisoners	-10.6074
▁solid	-10.6075
▁orders	-10.6079
▁approached	-10.6086
▁spec	-10.6088
osa	-10.6091
▁extent	-10.6092
▁sandy	-10.6094
▁string	-10.6098
▁strain	-10.6099
▁consumption	-10.61
▁wealth	-10.61
▁urban	-10.6103
▁medal	-10.6104
▁bel	-10.6105
ima	-10.6107
ending	-10.6107
▁overnight	-10.6111
▁susan	-10.6114
▁hiv	-10.6117
09	-10.6118
ku	-10.6119
▁pyongyang	-10.6125
▁fallen	-10.6129
▁consent	-10.6133
oh	-10.6134
lew	-10.6137
▁circuit	-10.6139
▁echo	-10.6144
32	-10.6145
▁reject	-10.6148
▁obtain	-10.6149
▁restore	-10.6152
hen	-10.6152
maker	-10.6155
dan	-10.6159
pin	-10.6163
▁existing	-10.6165
ivity	-10.6167
ae	-10.617
▁driven	-10.617
▁simpson	-10.6172
some	-10.6174
iti	-10.6175
▁forget	-10.6176
▁gathering	-10.6182
▁violation	-10.6186
▁vatican	-10.6186
▁finds	-10.6193
▁assembly	-10.6194
▁copy	-10.6194
▁briefing	-10.6194
▁bills	-10.6195
▁defect	-10.6206
▁amp	-10.6209
▁mur	-10.6209
▁plate	-10.6213
▁controlled	-10.6213
▁shin	-10.6213
▁auction	-10.6218
▁investigations	-10.6221
▁anonymity	-10.6223
▁geo	-10.6225
lov	-10.6225
ವ	-10.6227
▁excited	-10.623
▁clothes	-10.623
▁corps	-10.6233
▁supplement	-10.6237
▁islands	-10.6241
▁charity	-10.6241
▁admit	-10.6244
hoe	-10.625
▁obvious	-10.6252
90	-10.6253
▁52	-10.6261
▁misconduct	-10.6263
▁medication	-10.6263
poli	-10.6273
▁nationwide	-10.6274
▁represented	-10.628
▁relationships	-10.6283
▁bias	-10.6283
vid	-10.6284
▁kha	-10.6284
▁halt	-10.6286
▁affair	-10.6295
▁expand	-10.6295
▁fundamental	-10.6296
▁indication	-10.6296
▁debut	-10.6296
▁honest	-10.6297
▁pending	-10.6306
▁handling	-10.6317
▁cleveland	-10.6318
▁ste	-10.6322
▁51	-10.6325
▁plenty	-10.6325
card	-10.6328
vic	-10.633
chan	-10.6333
▁payments	-10.6338
▁por	-10.634
44	-10.6342
▁corporation	-10.6344
▁dun	-10.6345
▁folks	-10.6347
ological	-10.6348
▁readers	-10.6348
▁institution	-10.6349
▁conservation	-10.6352
▁fossil	-10.6358
▁riot	-10.6359
▁laid	-10.6361
level	-10.6364
ರಿತ	-10.6366
cin	-10.6367
▁chat	-10.6367
▁pages	-10.6372
▁somewhat	-10.6372
07	-10.6375
▁wire	-10.6378
ಮ	-10.638
▁reduction	-10.6385
tta	-10.6385
▁shake	-10.6388
▁reagan	-10.6392
ವು	-10.6393
▁sar	-10.6394
▁hunting	-10.6395
▁zi	-10.6396
▁prayers	-10.6396
▁fur	-10.6397
bal	-10.6398
▁netanyahu	-10.6399
▁increases	-10.6403
▁plays	-10.6406
▁attribut	-10.6406
▁scientist	-10.6409
▁silence	-10.641
dale	-10.6412
▁trick	-10.6413
▁register	-10.6413
▁kong	-10.6414
▁dramatic	-10.6422
▁simon	-10.6428
▁wil	-10.6429
▁hidden	-10.6432
▁66	-10.6432
▁disappearance	-10.6433
-20	-10.6434
▁seconds	-10.6437
▁inspired	-10.6445
▁methods	-10.6447
4,000	-10.6457
▁landing	-10.6457
▁desperate	-10.6462
▁sail	-10.6466
▁explore	-10.6468
▁hart	-10.647
▁cabinet	-10.6474
▁materials	-10.648
86	-10.6482
▁responding	-10.6485
▁advanced	-10.6485
iness	-10.6486
▁becomes	-10.6489
▁saved	-10.6493
▁tony	-10.6493
▁semi	-10.6495
▁hundred	-10.6501
▁judgment	-10.6503
▁playback	-10.6504
▁manner	-10.6505
▁jumped	-10.6509
▁mrs	-10.6514
▁champion	-10.6518
▁carson	-10.6519
▁advocates	-10.6523
uri	-10.6525
▁combination	-10.6526
▁christ	-10.6526
▁posting	-10.6529
▁stronger	-10.653
▁lift	-10.6535
▁featured	-10.6536
lick	-10.6539
▁brad	-10.6539
▁formed	-10.6546
▁brazil	-10.6546
▁yellow	-10.6548
▁mat	-10.6551
▁harder	-10.6554
dg	-10.6558
▁aren	-10.6563
▁technical	-10.6565
▁select	-10.6565
▁civilian	-10.6566
▁complained	-10.6569
▁origin	-10.6574
▁temporary	-10.6575
▁principal	-10.6579
▁index	-10.658
▁blo	-10.6584
▁unsupported	-10.6586
▁succeed	-10.6586
▁asian	-10.659
▁edt	-10.6597
loc	-10.6599
68	-10.6609
▁manage	-10.6611
54	-10.6612
▁category	-10.6613
▁greece	-10.6613
▁trauma	-10.6615
▁projects	-10.6616
▁buck	-10.6617
▁deadline	-10.6618
▁wheel	-10.6623
▁govern	-10.6623
▁microsoft	-10.6624
▁landed	-10.6625
bound	-10.6625
▁sean	-10.6626
▁tesla	-10.6628
▁punish	-10.6632
▁1999	-10.6634
▁gate	-10.6635
ann	-10.664
▁detention	-10.6643
▁effectively	-10.6648
▁industrial	-10.665
▁uniform	-10.665
▁grass	-10.6654
▁speculation	-10.6654
▁clock	-10.6661
▁description	-10.6666
▁resulted	-10.6667
▁importance	-10.6667
▁pra	-10.667
▁pence	-10.667
▁entering	-10.6676
▁rolling	-10.6676
▁accomplish	-10.6677
▁tissue	-10.6677
ister	-10.6677
▁preparing	-10.6681
▁tomorrow	-10.6681
▁links	-10.6681
aki	-10.6682
87	-10.6683
▁cellphone	-10.6685
33	-10.6687
▁crews	-10.6699
▁battery	-10.6704
▁tools	-10.6706
▁apologize	-10.6707
vert	-10.6709
hou	-10.6711
▁kit	-10.6715
▁billionaire	-10.6727
lot	-10.6727
▁vol	-10.673
▁medicare	-10.6735
▁vigil	-10.6742
▁jose	-10.6743
▁capacity	-10.6746
▁fda	-10.675
▁olympics	-10.6751
▁chapter	-10.6754
▁electric	-10.6756
▁appreciate	-10.6757
▁trillion	-10.6757
▁writers	-10.6758
▁torture	-10.6758
▁backed	-10.6762
▁cairo	-10.6765
67	-10.677
в	-10.6772
pic	-10.6776
▁guest	-10.6782
▁painting	-10.6782
▁gall	-10.6783
▁stat	-10.6784
▁volume	-10.6788
▁anywhere	-10.6788
▁cam	-10.6793
▁dean	-10.6795
▁exact	-10.6797
ounce	-10.6799
▁replied	-10.6804
▁lies	-10.6807
▁solo	-10.6809
89	-10.681
▁requested	-10.6811
▁entry	-10.6812
▁robot	-10.6817
▁daughters	-10.6824
▁bou	-10.6827
▁seats	-10.6832
▁flooding	-10.6833
▁volunteer	-10.6834
dom	-10.6835
▁cheap	-10.6836
cept	-10.6839
▁resignation	-10.6839
▁mock	-10.6845
▁mit	-10.6848
▁strict	-10.6854
ld	-10.6857
▁application	-10.6858
▁exploit	-10.6858
notes	-10.6861
71	-10.6862
▁caution	-10.6862
▁portray	-10.6867
▁residence	-10.6873
▁empty	-10.6878
▁bars	-10.6879
▁phase	-10.6883
83	-10.6888
▁falls	-10.6888
▁deals	-10.6893
▁representing	-10.6897
▁maker	-10.6902
▁smell	-10.6919
▁shirt	-10.6921
02	-10.6927
▁probation	-10.6928
▁polling	-10.6931
▁bannon	-10.6932
▁applied	-10.6936
▁islamist	-10.6937
▁historical	-10.6943
ulate	-10.6947
▁operator	-10.6948
06	-10.6952
▁wikileaks	-10.6955
▁dust	-10.696
▁edition	-10.6966
▁josh	-10.6966
▁inspector	-10.697
▁defended	-10.6979
▁brooklyn	-10.6979
omic	-10.698
▁spill	-10.6982
▁howard	-10.6983
▁establishment	-10.6987
▁advocate	-10.6994
▁syn	-10.6996
hur	-10.6996
▁marathon	-10.6999
▁undergo	-10.7003
▁begins	-10.7005
▁drawing	-10.7018
▁fate	-10.7019
▁alleg	-10.7023
▁guests	-10.7029
▁database	-10.703
▁usual	-10.7031
▁describes	-10.7032
▁regardless	-10.7032
eur	-10.7036
48	-10.7038
▁fle	-10.7039
▁toronto	-10.7039
zing	-10.704
▁revolution	-10.7044
cut	-10.7045
▁radar	-10.7047
▁vaccine	-10.7054
▁discrimination	-10.7055
▁atmosphere	-10.7058
▁blocked	-10.7062
▁knee	-10.7068
▁comfort	-10.7071
ius	-10.7073
▁depict	-10.7074
▁desert	-10.7075
▁arguing	-10.7078
ati	-10.7084
▁donations	-10.7085
profile	-10.7085
▁literally	-10.7086
▁condemn	-10.7088
▁crucial	-10.709
▁doors	-10.7092
▁shall	-10.7095
▁burning	-10.7096
28	-10.7098
oon	-10.7098
▁stable	-10.7098
▁habit	-10.7104
▁southwest	-10.7107
▁delegates	-10.7116
▁marks	-10.7116
▁covering	-10.7127
▁mixed	-10.7128
▁fought	-10.7129
▁jonathan	-10.7137
88	-10.7139
grade	-10.714
▁complicated	-10.7142
▁oversee	-10.7142
▁maine	-10.7155
▁bird	-10.7155
break	-10.7156
gie	-10.716
zen	-10.7162
▁jam	-10.7166
cie	-10.7169
▁afraid	-10.7169
▁proof	-10.7172
▁suspicion	-10.7173
▁handed	-10.7174
▁screening	-10.7175
▁observer	-10.718
▁crown	-10.7185
wy	-10.7186
38	-10.7189
▁frame	-10.7192
horn	-10.7193
▁chuck	-10.7195
you	-10.7195
92	-10.7196
▁rail	-10.7197
▁elephant	-10.7197
▁hostage	-10.7199
hav	-10.7202
read	-10.7206
▁unprecedented	-10.7213
▁afford	-10.7215
▁interaction	-10.7216
▁jessica	-10.7217
▁dying	-10.7219
▁dep	-10.722
-2	-10.7223
▁songs	-10.7224
▁scores	-10.7226
93	-10.7228
▁unexpected	-10.7234
▁tears	-10.7236
98	-10.7241
▁contractor	-10.7244
▁unfollow	-10.7246
ties	-10.7248
▁pig	-10.7249
▁thick	-10.725
▁upcoming	-10.7255
▁amounts	-10.7255
not	-10.7256
▁restrictions	-10.7259
▁urge	-10.7261
▁smartphone	-10.7262
▁clothing	-10.7266
▁photographer	-10.7266
pound	-10.7267
wear	-10.727
▁units	-10.7273
kov	-10.7274
▁hospitals	-10.7276
▁bound	-10.728
burn	-10.7284
▁tiger	-10.7289
▁islam	-10.729
▁procedures	-10.7293
▁shootings	-10.7296
▁diseases	-10.7298
▁normally	-10.7299
▁observation	-10.7302
▁acknowledge	-10.7306
▁repair	-10.7306
▁mourn	-10.7307
▁apologized	-10.7307
▁server	-10.7308
▁extraordinary	-10.7315
▁ages	-10.7322
▁withdraw	-10.7323
gro	-10.7325
▁priority	-10.733
▁jacob	-10.7331
ncy	-10.7332
▁typical	-10.7334
▁oakland	-10.7336
▁kingdom	-10.7336
▁dave	-10.7337
▁prop	-10.7338
▁legally	-10.7338
▁guidelines	-10.7343
▁cards	-10.7349
▁surprising	-10.7354
▁mas	-10.7354
hitting	-10.7356
▁predicted	-10.7359
34	-10.7362
▁independence	-10.7363
▁stadium	-10.7363
▁1970	-10.7367
▁transplant	-10.7367
▁studied	-10.7367
▁staying	-10.7369
▁rapid	-10.737
▁properly	-10.7375
known	-10.7379
▁waves	-10.7381
▁questioning	-10.7381
▁retailer	-10.7383
wer	-10.7384
▁mini	-10.7384
▁anymore	-10.7386
▁visible	-10.7388
▁column	-10.7388
▁canceled	-10.7398
bury	-10.7406
▁infrastructure	-10.7408
word	-10.7409
mont	-10.7415
▁qaeda	-10.7417
▁arrival	-10.7417
▁capable	-10.742
▁hug	-10.7422
▁shame	-10.7425
▁30-	-10.7426
▁reverse	-10.7426
▁resign	-10.743
▁ratings	-10.7431
▁lesson	-10.7433
▁shutdown	-10.7435
▁cir	-10.7437
▁faster	-10.7438
▁lisa	-10.7443
kle	-10.7447
▁assets	-10.7449
▁gal	-10.745
▁visual	-10.7454
▁biological	-10.7454
03	-10.7455
▁athletes	-10.7455
▁stem	-10.7459
▁tensions	-10.7459
▁dismiss	-10.7462
▁violated	-10.7469
▁inquiry	-10.747
▁mali	-10.747
▁marc	-10.7475
▁springs	-10.7475
range	-10.7476
▁2,000	-10.7476
▁clue	-10.7479
▁trapped	-10.7479
▁roberts	-10.7485
▁phones	-10.7488
▁monument	-10.7491
▁mask	-10.7494
pass	-10.7495
▁legs	-10.7497
▁tradition	-10.7499
▁connecticut	-10.7499
▁extremist	-10.7499
▁library	-10.7499
▁universal	-10.7499
▁sued	-10.7502
ura	-10.7505
▁lord	-10.7505
▁affordable	-10.7506
▁abandoned	-10.7508
kel	-10.7509
▁thompson	-10.7511
▁collins	-10.7512
▁53	-10.7512
▁demands	-10.7516
▁moves	-10.7517
och	-10.7519
94	-10.7523
▁protein	-10.7524
▁cuba	-10.7527
pol	-10.7531
▁routine	-10.7531
▁supplies	-10.7532
nation	-10.7537
▁voter	-10.7539
▁nose	-10.7539
▁purchased	-10.7549
▁ipad	-10.7554
\	-10.7554
▁rural	-10.7556
▁wonderful	-10.7558
dia	-10.7562
fla	-10.7563
▁chicken	-10.7564
▁donors	-10.7566
▁killings	-10.7567
▁clients	-10.7573
▁sum	-10.7574
▁necessarily	-10.7578
▁academic	-10.7582
▁indonesia	-10.7582
▁traveled	-10.7583
▁legislative	-10.7586
▁revelation	-10.7586
▁indictment	-10.7586
elli	-10.7586
▁magic	-10.7596
▁burned	-10.7597
▁mississippi	-10.7599
▁couples	-10.7599
▁edward	-10.7599
▁departure	-10.7604
▁confirmation	-10.7605
▁resigned	-10.7611
▁muscle	-10.7612
▁dollar	-10.7617
▁fields	-10.7618
▁gear	-10.762
▁reaching	-10.7627
▁tent	-10.7628
▁gunshot	-10.763
ole	-10.7632
▁fees	-10.7632
▁baker	-10.764
▁12-	-10.7641
▁childhood	-10.7652
case	-10.7652
▁infected	-10.7653
▁suburb	-10.7654
▁adopted	-10.7655
▁disclosure	-10.7655
▁powers	-10.7657
▁kilometers	-10.7659
▁stranger	-10.766
▁collapsed	-10.7663
/20	-10.7665
▁warn	-10.7667
▁script	-10.7668
▁sector	-10.7672
▁discussions	-10.7677
▁corn	-10.7678
49	-10.768
▁homeless	-10.7687
▁reasonable	-10.7687
▁organized	-10.7688
▁odd	-10.769
▁recover	-10.7691
66	-10.7694
▁afp	-10.7694
▁tunnel	-10.7695
64	-10.77
▁rosen	-10.7701
▁examined	-10.7701
mond	-10.7702
▁jesus	-10.7708
▁72	-10.7714
▁cre	-10.7715
iver	-10.7715
▁measured	-10.772
▁zuckerberg	-10.7721
91	-10.7722
▁documentary	-10.7725
▁kar	-10.7727
▁expression	-10.7728
▁detective	-10.7731
▁photographs	-10.7733
▁audit	-10.7737
▁annotation	-10.7738
▁mun	-10.7739
fire	-10.7743
shot	-10.7744
▁mandate	-10.7746
▁striking	-10.775
lp	-10.7754
-3	-10.7755
▁knife	-10.7755
▁soul	-10.7758
▁arrests	-10.7759
▁preliminary	-10.7759
▁defendant	-10.7762
▁escaped	-10.7765
▁targeting	-10.7767
▁limits	-10.7767
▁theft	-10.7769
▁suggestion	-10.7769
▁disagree	-10.7773
dding	-10.7774
▁creative	-10.7777
▁musk	-10.7779
▁partnership	-10.7782
▁inbox	-10.7783
▁birds	-10.7784
▁nancy	-10.7792
▁jimmy	-10.7794
▁gary	-10.78
▁holder	-10.7804
▁overwhelming	-10.7806
eng	-10.7807
▁intend	-10.7809
▁briefly	-10.7816
▁quote	-10.7817
▁valid	-10.7819
▁lone	-10.7832
▁15-	-10.7834
▁praised	-10.7835
▁kavanaugh	-10.7836
▁populations	-10.7837
▁complain	-10.784
ಟ್	-10.784
▁tale	-10.7843
▁benghazi	-10.7844
ಕ	-10.7845
▁vacation	-10.7849
▁somehow	-10.7849
part	-10.7849
key	-10.785
▁dig	-10.7851
▁forever	-10.7853
▁evacuation	-10.7857
▁desk	-10.7861
▁overseas	-10.7861
▁pad	-10.7862
▁incredible	-10.7866
▁incredibly	-10.7866
▁alliance	-10.7866
▁cain	-10.7869
▁dedicated	-10.7874
ova	-10.7878
▁slate	-10.7878
▁fighter	-10.7882
▁grade	-10.7888
▁54	-10.7889
▁barrier	-10.7895
gon	-10.7899
▁enormous	-10.79
▁scenario	-10.79
▁payment	-10.7902
▁missiles	-10.7905
▁corruption	-10.7906
▁pizza	-10.7909
▁toxic	-10.791
▁ambulance	-10.7913
▁strategic	-10.7913
▁audio	-10.7915
▁capt	-10.7917
▁rarely	-10.7918
▁plain	-10.7919
▁toll	-10.7926
▁outlets	-10.7927
▁recognized	-10.7927
▁ana	-10.7935
▁bernie	-10.7935
▁healthcare	-10.7936
46	-10.7938
▁ranch	-10.794
▁beer	-10.7941
▁plaintiff	-10.7943
▁jerry	-10.7943
▁dressed	-10.7947
iel	-10.7949
▁unemployment	-10.7952
▁sink	-10.7953
▁baseball	-10.7953
eman	-10.7954
▁libyan	-10.7956
▁gather	-10.7958
▁anne	-10.7961
▁raw	-10.7965
▁archive	-10.7968
▁evolution	-10.7972
▁checks	-10.7973
mus	-10.7973
ito	-10.798
▁somewhere	-10.7987
▁melt	-10.7994
ique	-10.7995
▁loose	-10.7996
▁oldest	-10.7999
▁volunteers	-10.8001
▁negotiate	-10.8004
▁manufacturer	-10.8006
▁quit	-10.8006
▁passage	-10.8007
▁perspective	-10.8008
▁pocket	-10.8008
▁laboratory	-10.8009
interpret	-10.801
6,000	-10.8013
stand	-10.8014
▁pit	-10.8015
▁concentration	-10.8017
▁violations	-10.8017
▁motive	-10.8017
▁grab	-10.802
▁unveil	-10.8026
▁priest	-10.8027
met	-10.8028
▁lobby	-10.8029
ಗಳ	-10.8039
live	-10.804
even	-10.8041
:45	-10.8048
▁vital	-10.8049
ಂ	-10.8052
arch	-10.8052
ida	-10.8052
55	-10.8054
▁guards	-10.8054
▁anyway	-10.8057
ರಿ	-10.8062
gl	-10.8064
▁damascus	-10.8065
▁cousin	-10.8065
die	-10.8066
▁download	-10.8068
ಳ	-10.8069
▁enroll	-10.8069
▁threw	-10.807
▁forms	-10.807
teen	-10.8074
▁weird	-10.8076
▁morris	-10.8082
▁followers	-10.8082
▁18-	-10.8086
▁forensic	-10.8087
▁engage	-10.8091
▁actors	-10.8094
▁slowly	-10.8097
▁afterward	-10.8098
than	-10.8098
▁puerto	-10.81
56	-10.8101
▁lung	-10.8103
▁cub	-10.8103
▁bears	-10.8104
▁chosen	-10.8105
▁relat	-10.8106
▁grounds	-10.8107
eller	-10.8107
ancy	-10.8111
▁viewed	-10.8118
▁busy	-10.8119
▁engineering	-10.8119
ula	-10.8121
▁med	-10.8122
▁institutions	-10.8125
▁proved	-10.8126
▁9/11	-10.8131
▁bishop	-10.8131
▁comedian	-10.8131
▁posts	-10.8132
▁cy	-10.8136
▁scenes	-10.8137
ira	-10.8137
36	-10.8138
▁specialist	-10.8139
ranging	-10.8141
▁larry	-10.8144
worth	-10.8145
▁demonstrate	-10.8148
▁chan	-10.8151
▁eliminate	-10.8153
▁lucky	-10.8158
96	-10.8158
eck	-10.8162
39	-10.8162
▁drunk	-10.8166
▁grace	-10.8169
97	-10.8171
▁legacy	-10.8171
▁comfortable	-10.8174
▁archaeologist	-10.8175
▁thrill	-10.8178
▁prescription	-10.818
:15	-10.818
▁midnight	-10.818
▁authorized	-10.8181
▁gates	-10.8183
▁import	-10.8183
▁resume	-10.8189
▁alien	-10.8194
▁aboard	-10.8194
▁shoulder	-10.8196
▁handful	-10.8199
▁demanded	-10.82
▁recommended	-10.8202
▁vent	-10.8205
▁condo	-10.8205
▁20-	-10.8207
▁intent	-10.8207
atch	-10.8207
▁odds	-10.8209
ಕ್	-10.8213
▁gut	-10.8215
43	-10.8218
▁mega	-10.8221
▁caption	-10.8224
▁thin	-10.8225
▁rhetoric	-10.8228
▁rome	-10.8229
▁warner	-10.823
▁understood	-10.8233
▁fence	-10.8235
▁wealthy	-10.8238
▁convinced	-10.8241
▁proper	-10.8247
▁containing	-10.825
place	-10.8254
▁prefer	-10.8259
8,000	-10.826
▁yeah	-10.8261
mel	-10.8264
▁opposite	-10.8264
▁celebration	-10.8264
▁recommend	-10.8265
▁flint	-10.8265
▁surge	-10.8267
▁divided	-10.8269
▁henry	-10.8269
▁hawk	-10.8272
▁harsh	-10.8275
▁northeast	-10.8276
▁arch	-10.8277
cast	-10.8278
▁teens	-10.8279
eff	-10.828
▁scrutiny	-10.8282
▁destruction	-10.8287
85	-10.8289
▁rip	-10.8292
▁rating	-10.8293
▁struggled	-10.8296
▁basketball	-10.8296
▁fairly	-10.8297
т	-10.8299
▁visa	-10.8299
▁contains	-10.8299
▁demanding	-10.8303
▁goldman	-10.8304
author	-10.8304
▁describing	-10.8304
▁antonio	-10.8304
made	-10.8305
▁frequent	-10.8309
▁psych	-10.8312
▁asks	-10.8314
▁coin	-10.8314
▁rescued	-10.8321
▁oppose	-10.8322
▁pink	-10.8322
▁rot	-10.8323
▁appointment	-10.8324
▁treasury	-10.8327
▁kidnapping	-10.8332
▁bold	-10.8332
hir	-10.8332
▁retirement	-10.8342
▁grateful	-10.8345
▁suspicious	-10.8345
▁therapy	-10.8345
▁threaten	-10.8346
▁employment	-10.8351
▁yield	-10.8354
▁philip	-10.8356
▁snap	-10.8357
▁shocking	-10.8358
▁ireland	-10.8359
▁cli	-10.8359
rise	-10.836
▁craig	-10.8362
▁carol	-10.8363
▁musical	-10.8365
▁files	-10.8365
72	-10.8366
ban	-10.8378
▁emerge	-10.838
▁meteor	-10.8381
-8	-10.8382
▁brussels	-10.8385
▁vietnam	-10.839
▁cord	-10.8392
rov	-10.8392
▁absence	-10.8395
▁caucus	-10.8398
▁khan	-10.8401
▁angel	-10.8402
▁exceed	-10.8404
▁judges	-10.8407
▁broader	-10.8407
wick	-10.841
▁devastating	-10.8413
▁illegally	-10.8414
▁cow	-10.8418
vowed	-10.8421
iya	-10.8423
▁politically	-10.8427
▁mechanism	-10.8431
▁demonstrators	-10.8431
▁sudden	-10.8431
▁boot	-10.8433
▁insult	-10.8435
▁elements	-10.8437
get	-10.8438
▁1998	-10.8439
▁aviation	-10.8445
▁tokyo	-10.8445
▁jerusalem	-10.8449
aj	-10.845
▁lip	-10.8456
▁everywhere	-10.8458
▁borrow	-10.8459
▁disappointed	-10.8463
▁barn	-10.8465
▁headlines	-10.847
▁advisers	-10.847
▁trained	-10.8476
nik	-10.848
▁successfully	-10.8481
▁pledge	-10.8485
▁courtroom	-10.8485
▁stroke	-10.8486
▁wright	-10.8487
▁abroad	-10.849
▁administrator	-10.8499
▁pastor	-10.8502
▁wins	-10.8504
▁holmes	-10.8505
▁mate	-10.8506
▁1.5	-10.8507
▁essential	-10.8509
▁berlin	-10.851
▁tracking	-10.8513
▁personality	-10.8514
are	-10.8518
▁hint	-10.8519
▁tourists	-10.852
▁soil	-10.8521
▁arkansas	-10.8522
▁affidavit	-10.8527
▁fatally	-10.8527
▁dc	-10.8529
▁psychological	-10.8532
▁twist	-10.8536
▁offense	-10.8544
direct	-10.8545
▁teeth	-10.8554
▁announcing	-10.8559
▁comprehensive	-10.8559
▁programme	-10.8561
▁rig	-10.8562
▁resist	-10.8564
rop	-10.8567
nam	-10.8569
▁beast	-10.8572
▁scared	-10.8573
▁pakistani	-10.8574
▁embrace	-10.8577
▁massacre	-10.8577
▁elementary	-10.8578
▁rely	-10.8586
power	-10.8587
inch	-10.8589
oli	-10.859
▁hispanic	-10.8596
▁replaced	-10.8599
▁silent	-10.86
▁disrupt	-10.8601
▁forum	-10.8603
▁fort	-10.8604
▁leaked	-10.8604
mph	-10.861
lib	-10.8628
▁sheet	-10.8628
▁manning	-10.8629
▁sweat	-10.8629
▁achieve	-10.863
▁restaurants	-10.863
▁challenging	-10.8633
▁lindsay	-10.8633
▁bedroom	-10.8634
ground	-10.8636
▁schumer	-10.8638
▁objects	-10.864
▁om	-10.8645
▁nelson	-10.8647
▁xi	-10.8649
▁kitchen	-10.8652
▁math	-10.8653
ordinate	-10.8661
▁57	-10.8662
▁losses	-10.867
▁ceiling	-10.867
▁tele	-10.867
▁defence	-10.8673
▁chu	-10.8674
▁peninsula	-10.8675
▁chronicle	-10.8676
▁gru	-10.8678
▁hal	-10.8678
▁crying	-10.868
dispatch	-10.8682
▁opportunities	-10.8684
▁glad	-10.8684
▁barely	-10.8684
▁lifetime	-10.8688
media	-10.8692
▁snake	-10.8693
▁marco	-10.8695
▁engagement	-10.8696
kar	-10.8697
▁parker	-10.8699
▁recount	-10.8701
▁lincoln	-10.8702
▁walter	-10.8704
▁craft	-10.8705
▁soviet	-10.8707
▁walmart	-10.8712
▁1996	-10.8725
▁attending	-10.8726
▁hanging	-10.8729
▁collective	-10.8731
▁hung	-10.8734
▁bags	-10.8735
▁hiding	-10.8736
▁eggs	-10.8737
▁sgt	-10.874
making	-10.8746
▁retail	-10.8748
▁component	-10.8749
▁hail	-10.8754
▁taxpayer	-10.8754
door	-10.8756
▁pipeline	-10.876
▁castro	-10.8766
▁creation	-10.8768
▁cooperation	-10.8769
▁17-	-10.877
▁liquid	-10.8773
▁porn	-10.8773
▁refuse	-10.8778
▁barbara	-10.8778
▁preserve	-10.8781
▁arguments	-10.8784
▁illustrat	-10.8787
▁nest	-10.8789
▁returns	-10.8789
▁experiences	-10.879
▁answered	-10.8791
▁palace	-10.8792
▁extract	-10.8799
▁knight	-10.8799
▁regions	-10.8805
▁malaysia	-10.8808
▁firearms	-10.8811
▁belt	-10.8813
▁courts	-10.8816
▁export	-10.8817
▁tablet	-10.8822
vor	-10.8822
▁encouraged	-10.8826
▁portland	-10.883
▁lawrence	-10.8839
▁rehab	-10.8839
aged	-10.8841
▁noise	-10.8844
▁classes	-10.8845
▁dinosaur	-10.8848
▁vocal	-10.885
▁improvement	-10.885
▁heroin	-10.8854
▁56	-10.8855
uf	-10.8857
▁publisher	-10.8859
ila	-10.8859
▁assange	-10.8862
▁skull	-10.8862
▁lowest	-10.8864
chen	-10.8866
53	-10.8867
▁resistance	-10.8868
▁rapidly	-10.8869
▁superior	-10.8872
▁ethics	-10.8877
▁shoes	-10.8879
loo	-10.888
▁proportion	-10.8881
▁tool	-10.8885
▁decrease	-10.8886
▁performing	-10.8886
▁starts	-10.8887
▁reviewed	-10.8888
▁beauty	-10.8896
nor	-10.8901
▁subsequent	-10.8907
▁appointed	-10.8908
42	-10.8909
far	-10.891
owski	-10.8911
hel	-10.8911
▁deployed	-10.8914
scale	-10.8914
cb	-10.8917
▁bipartisan	-10.892
▁thrown	-10.8923
▁foster	-10.8924
▁teenage	-10.8924
▁clashe	-10.8927
world	-10.8929
▁tribute	-10.8929
▁tie	-10.8932
ello	-10.8933
▁tail	-10.8939
▁pace	-10.894
▁whale	-10.8944
▁condemned	-10.8945
▁layer	-10.8949
rio	-10.8951
▁default	-10.8953
cat	-10.8955
▁painful	-10.8956
hor	-10.8957
▁seoul	-10.8958
feld	-10.8958
▁exception	-10.8962
▁sweden	-10.8963
▁aged	-10.8975
▁mood	-10.8977
▁comic	-10.8979
▁pipe	-10.898
▁terminat	-10.8981
eli	-10.899
▁repeat	-10.8992
▁shu	-10.8994
▁pier	-10.8999
▁burden	-10.9
owned	-10.901
▁selection	-10.9012
▁wreck	-10.9014
▁bp	-10.9014
▁tribune	-10.902
▁testify	-10.9024
▁universe	-10.9025
▁screaming	-10.903
▁survival	-10.903
▁proceedings	-10.9032
▁zika	-10.9032
▁humanitarian	-10.9035
▁lap	-10.9035
▁searched	-10.9038
▁orleans	-10.9039
▁laura	-10.9043
▁coll	-10.9044
▁sony	-10.905
▁swing	-10.9051
▁urging	-10.9055
▁appearing	-10.9056
nel	-10.9056
▁douglas	-10.9059
▁tips	-10.9059
▁sequence	-10.9064
▁cocaine	-10.9064
▁strengthen	-10.9065
▁thousand	-10.9066
▁mortality	-10.9073
▁predator	-10.9075
▁improved	-10.9075
▁coal	-10.9075
▁premiere	-10.9079
▁crossing	-10.908
▁eve	-10.9081
▁sustained	-10.9082
▁5,000	-10.9082
▁attract	-10.9087
▁temple	-10.9088
▁drinks	-10.9088
▁prayer	-10.909
▁1997	-10.9092
▁hub	-10.9094
▁affiliate	-10.9095
▁greet	-10.9096
▁sleeping	-10.9097
▁rumors	-10.9099
▁constant	-10.9099
front	-10.9103
▁dow	-10.9103
▁reveals	-10.9106
▁medicaid	-10.9107
hab	-10.9114
▁tillerson	-10.9122
▁naked	-10.9128
▁explicit	-10.9132
▁metro	-10.9134
▁timing	-10.9135
▁coroner	-10.9146
▁elite	-10.9147
▁tobacco	-10.9151
▁soccer	-10.9151
▁gig	-10.9152
▁unfair	-10.9161
▁cliff	-10.9166
▁carefully	-10.9172
▁panic	-10.9177
▁poverty	-10.918
▁scheme	-10.9186
▁awareness	-10.9195
▁grabbed	-10.9196
uted	-10.9198
▁cannabis	-10.92
▁attitude	-10.9205
▁teach	-10.9209
▁dakota	-10.9215
2.5	-10.9216
▁requirements	-10.9221
▁examiner	-10.9224
▁thorough	-10.9225
rushed	-10.9228
lau	-10.9233
space	-10.9233
▁epi	-10.9234
▁referendum	-10.9234
▁sentencing	-10.9234
▁headline	-10.9238
▁evil	-10.9243
▁signing	-10.9245
▁acted	-10.9246
▁getty	-10.9248
95	-10.9248
plan	-10.9248
▁armstrong	-10.925
▁retain	-10.925
▁ultra	-10.925
▁spray	-10.9251
▁fortune	-10.9256
dar	-10.9258
▁enhance	-10.9259
▁peer	-10.926
▁mohammed	-10.9269
▁loyal	-10.9277
▁congressman	-10.9282
▁ronald	-10.9284
▁murphy	-10.9284
▁closest	-10.9285
▁luck	-10.9287
▁hasn	-10.9289
62	-10.929
▁accord	-10.9291
▁seemingly	-10.9294
night	-10.9296
▁checked	-10.9296
▁diversity	-10.9301
woman	-10.9302
▁68	-10.9306
▁71	-10.9306
mitt	-10.9311
▁epa	-10.9313
▁brave	-10.9315
▁autopsy	-10.9318
watch	-10.9322
▁parole	-10.9325
▁tribe	-10.9328
▁lethal	-10.9337
▁addiction	-10.9338
▁cognitive	-10.9338
▁northwest	-10.9338
▁refugee	-10.9343
▁concrete	-10.9343
▁courtesy	-10.9344
▁resolve	-10.9345
▁bomber	-10.9347
▁shout	-10.9348
41	-10.935
▁rio	-10.935
▁underground	-10.9354
rrell	-10.9354
▁purposes	-10.9356
▁58	-10.9356
▁saint	-10.9361
▁aftermath	-10.9373
▁flynn	-10.9374
7,000	-10.9379
▁mph	-10.938
▁settle	-10.9383
▁diagnosis	-10.9383
▁preparation	-10.9383
anthrop	-10.9384
▁nerve	-10.939
▁robbery	-10.9395
▁mosque	-10.9399
ffer	-10.9399
▁maintained	-10.9401
rg	-10.9402
▁airstrike	-10.9403
▁defined	-10.9405
▁hatch	-10.9406
▁chaos	-10.9407
▁chip	-10.9407
▁pledged	-10.9414
▁correspond	-10.9416
storm	-10.9421
▁rico	-10.9422
ranking	-10.9424
▁bike	-10.9427
▁whales	-10.9429
▁boom	-10.9431
▁mus	-10.9432
▁pulling	-10.9442
donnell	-10.9452
▁applications	-10.9454
▁instrument	-10.9458
▁poly	-10.9462
▁bizarre	-10.9469
▁detected	-10.947
▁bombs	-10.9472
▁mysterious	-10.9479
link	-10.9479
▁doug	-10.948
▁disturbing	-10.9484
▁dutch	-10.9484
▁crush	-10.9486
▁ethnic	-10.9489
▁counties	-10.9491
▁elect	-10.9494
▁patterns	-10.9494
▁assaulted	-10.9499
▁endorsement	-10.9501
▁philippine	-10.9504
▁confrontation	-10.9508
▁marry	-10.9508
▁legislature	-10.9509
▁liberty	-10.9509
▁dominate	-10.9512
▁protocol	-10.9514
▁joining	-10.9516
▁forcing	-10.9518
▁diabetes	-10.9519
▁manipulat	-10.9519
▁sue	-10.9521
▁wounds	-10.9525
▁kicked	-10.9527
▁distress	-10.9529
shirt	-10.953
▁skills	-10.9532
▁bitter	-10.9532
ffe	-10.9534
▁producers	-10.9537
usat	-10.9538
▁poison	-10.954
▁ourselves	-10.9544
▁isolated	-10.9545
morph	-10.9546
▁progressive	-10.9547
▁recognition	-10.9549
eau	-10.955
ele	-10.9553
type	-10.9553
▁tracks	-10.9555
ugg	-10.9556
▁violate	-10.9558
▁franchise	-10.956
▁lopez	-10.956
▁overdose	-10.956
▁pronounced	-10.9565
▁bench	-10.9566
▁murdered	-10.9568
▁touched	-10.9569
cco	-10.9569
▁pitt	-10.9573
▁polar	-10.9579
▁badly	-10.958
▁59	-10.9585
▁bruce	-10.9586
▁creek	-10.9586
▁warming	-10.9587
▁syndrome	-10.959
▁investigator	-10.9592
▁settled	-10.9593
▁premium	-10.9595
▁chronic	-10.9596
▁sym	-10.96
▁ruin	-10.9601
▁mice	-10.9602
▁todd	-10.9607
▁contribute	-10.9614
▁shield	-10.9616
▁developer	-10.9623
▁existence	-10.9624
▁definition	-10.9626
▁legitimate	-10.9626
pac	-10.9627
▁meta	-10.963
▁consideration	-10.9631
▁stamp	-10.9631
▁couch	-10.9638
▁suv	-10.964
▁emissions	-10.9641
ata	-10.9644
chin	-10.9645
matic	-10.9648
-4	-10.965
founder	-10.9652
▁jews	-10.9657
2,000	-10.966
▁oust	-10.9661
third	-10.9661
▁murray	-10.9662
▁dose	-10.9664
▁hackers	-10.9666
▁1994	-10.9671
▁beneath	-10.9672
▁segment	-10.9672
ico	-10.9677
tech	-10.9677
▁phrase	-10.9677
▁feelings	-10.968
▁immune	-10.9682
▁lohan	-10.9686
▁courage	-10.9688
▁tickets	-10.9689
▁spell	-10.9692
▁tsarnaev	-10.9698
▁trooper	-10.9698
▁entrance	-10.9703
▁exclud	-10.9703
▁emotions	-10.9707
▁communicate	-10.9709
▁approve	-10.9711
▁85	-10.9712
▁bieber	-10.9713
▁heritage	-10.9713
▁beating	-10.9723
▁adams	-10.9723
▁stupid	-10.9724
▁64	-10.9728
mol	-10.9735
▁examine	-10.9735
zar	-10.9737
fri	-10.9741
vit	-10.9742
▁continent	-10.9744
▁hacking	-10.975
▁scout	-10.9752
▁holy	-10.9755
▁newsletter	-10.9755
▁anna	-10.9757
col	-10.9769
▁mubarak	-10.977
▁barrel	-10.9774
accompanied	-10.9776
▁shadow	-10.9776
wore	-10.9777
▁artists	-10.9778
▁fishing	-10.9778
▁teaching	-10.9779
verse	-10.978
▁conducting	-10.9781
▁bump	-10.9781
▁meters	-10.9783
▁mainly	-10.9784
57	-10.9785
▁assume	-10.979
▁cry	-10.979
▁celebrities	-10.9791
▁expanded	-10.9793
▁transgender	-10.9796
▁offender	-10.9797
▁pointing	-10.9797
▁tag	-10.9799
▁evacuated	-10.9799
▁electoral	-10.9807
▁landscape	-10.9807
ifying	-10.981
yo	-10.9812
▁selected	-10.9812
▁67	-10.9814
▁cheat	-10.9816
▁62	-10.9821
mile	-10.9824
▁dear	-10.9825
lop	-10.9826
▁bug	-10.9829
claim	-10.9831
▁carl	-10.9832
▁assigned	-10.9833
▁adopt	-10.9835
▁storage	-10.9838
▁bankruptcy	-10.9838
ush	-10.9839
▁preserv	-10.9842
▁grandmother	-10.9843
▁pure	-10.985
▁diamond	-10.9854
▁raped	-10.9857
▁chen	-10.9857
tti	-10.9861
▁infections	-10.9862
▁dawn	-10.9862
▁knock	-10.9862
▁behaviour	-10.9863
▁mir	-10.9868
▁naval	-10.9869
▁trash	-10.9869
▁primari	-10.987
▁patch	-10.9871
vol	-10.9872
▁bryan	-10.9874
▁expectations	-10.9877
rah	-10.9879
▁militant	-10.9879
▁expansion	-10.988
▁sterling	-10.9881
▁remarkable	-10.9882
▁undermine	-10.9883
▁horror	-10.9891
▁physically	-10.9894
▁sufficient	-10.9896
▁cambridge	-10.9896
▁pistorius	-10.9896
voked	-10.9909
gur	-10.9911
▁tick	-10.9913
▁assert	-10.9914
▁tha	-10.9914
▁properties	-10.9917
▁loan	-10.9925
▁quake	-10.9925
cop	-10.9932
▁delayed	-10.9932
▁charlotte	-10.9933
▁valuable	-10.9938
▁designer	-10.9939
▁hood	-10.9941
▁hyper	-10.9943
▁egg	-10.9943
▁knox	-10.9943
▁keith	-10.9943
▁patent	-10.9945
▁exclusively	-10.9951
▁narrative	-10.9954
▁crystal	-10.9954
▁colleague	-10.9955
twitter	-10.9956
mobil	-10.9956
▁nervous	-10.9959
▁bitcoin	-10.9959
cio	-10.996
▁posed	-10.996
▁handled	-10.9961
▁bunch	-10.9964
▁chant	-10.9965
▁acid	-10.9966
▁consist	-10.9966
▁enforce	-10.9968
hol	-10.997
▁creature	-10.997
▁advised	-10.997
standing	-10.9971
mission	-10.9972
▁gil	-10.9973
▁iii	-10.9974
▁uncle	-10.9975
▁venezuela	-10.9975
▁removal	-10.9978
▁neil	-10.9986
automatic	-10.9988
▁careful	-10.9989
▁alzheimer	-10.9991
▁squad	-10.9991
▁km	-10.9992
fc	-10.9995
▁defendants	-10.9997
ami	-11.0001
▁parade	-11.0003
▁promises	-11.0009
▁scholar	-11.0011
▁welfare	-11.0017
▁hopeful	-11.0021
:20	-11.0025
▁alan	-11.0025
▁jurors	-11.0026
▁stance	-11.0026
vel	-11.0028
▁genuine	-11.0028
▁tropical	-11.0033
▁cleared	-11.0035
▁delta	-11.0035
▁69	-11.0035
▁amanda	-11.004
▁equivalent	-11.0044
▁practical	-11.0044
▁separated	-11.0044
tile	-11.0047
▁anthem	-11.005
▁hire	-11.0051
▁venture	-11.0051
weight	-11.0052
▁whit	-11.0053
▁neutral	-11.0055
▁twenty	-11.0055
▁beverly	-11.0061
▁victoria	-11.0061
ase	-11.0069
▁rhode	-11.0071
▁economist	-11.0076
bank	-11.008
▁administrative	-11.0082
udi	-11.0082
pod	-11.0083
▁hamas	-11.0085
▁mccarthy	-11.0087
pu	-11.0089
▁attached	-11.0092
meyer	-11.0096
▁kenya	-11.0096
▁arctic	-11.0098
▁reducing	-11.0098
▁submitted	-11.0099
▁loans	-11.0099
▁esc	-11.01
ika	-11.0111
▁horrible	-11.0114
▁statistics	-11.0114
▁nun	-11.0115
▁inmate	-11.0117
▁lifestyle	-11.0121
bach	-11.0121
59	-11.0127
▁hospitalized	-11.0129
▁breed	-11.0129
▁consultant	-11.0134
▁slip	-11.0137
▁compensation	-11.0141
▁phoenix	-11.0141
▁mode	-11.0141
▁southeast	-11.0142
▁anxiety	-11.0146
▁frustration	-11.0146
▁treasure	-11.0151
▁mirror	-11.0151
▁supervisor	-11.0151
▁crossed	-11.0152
▁competitive	-11.0157
▁russell	-11.0157
▁neo	-11.016
▁villa	-11.0163
▁defending	-11.0164
illo	-11.017
▁nonprofit	-11.0174
▁feared	-11.0174
▁dialogue	-11.0178
hill	-11.0184
▁studying	-11.0188
▁sab	-11.0191
▁robin	-11.0197
▁hitler	-11.0198
step	-11.0199
▁radiation	-11.02
ien	-11.0206
▁confidential	-11.0208
▁discussing	-11.0209
▁accusing	-11.0211
▁mammal	-11.0211
ವೀ	-11.0212
▁featur	-11.0213
▁mcg	-11.0217
▁ingredient	-11.0222
▁rallie	-11.0224
count	-11.0232
▁construct	-11.0234
▁embarrass	-11.0241
▁protective	-11.0242
▁genes	-11.0246
▁stomach	-11.0249
▁elderly	-11.0251
fish	-11.0252
▁dylan	-11.0255
▁useful	-11.0258
▁packed	-11.0258
▁albert	-11.0259
▁mono	-11.0261
▁disclosed	-11.0263
▁resembl	-11.0265
▁franklin	-11.0266
gno	-11.0266
▁arrangement	-11.0271
▁oxygen	-11.0271
▁edwards	-11.0272
▁kan	-11.028
▁donor	-11.0282
bia	-11.0286
▁murdoch	-11.0287
▁coastal	-11.0288
▁1995	-11.0291
▁imposed	-11.0292
▁oversight	-11.0293
▁mah	-11.03
▁aaron	-11.03
▁notified	-11.0302
▁1960	-11.0306
▁replacement	-11.031
▁michel	-11.0316
high	-11.0317
▁mont	-11.0317
▁twins	-11.0324
▁mum	-11.0326
borough	-11.0328
▁divide	-11.0328
temp	-11.0331
pil	-11.0334
ille	-11.0339
▁ideal	-11.0345
volt	-11.0351
▁eager	-11.0353
▁organisation	-11.0353
▁integrity	-11.0359
▁deposit	-11.0361
activat	-11.0362
	-11.0364
▁benjamin	-11.0364
▁comb	-11.0365
▁mud	-11.0368
▁spur	-11.0369
▁regulators	-11.037
▁executed	-11.037
▁enemy	-11.0375
▁prim	-11.038
▁particle	-11.0381
▁strategist	-11.0386
km	-11.0388
▁blu	-11.0393
▁transferred	-11.0393
▁msnbc	-11.0398
▁waited	-11.0404
▁burger	-11.0406
▁artificial	-11.0408
▁berkeley	-11.0408
▁3,000	-11.0409
▁ease	-11.0412
most	-11.0413
▁garner	-11.0413
▁expenses	-11.0414
▁stressed	-11.0419
▁trailer	-11.0425
▁turner	-11.0426
▁titan	-11.0428
▁merkel	-11.0436
▁requir	-11.0439
brook	-11.044
▁neighbour	-11.0442
▁ಪಡೆಯ	-11.0442
▁npr	-11.0445
▁diplomats	-11.0446
▁remov	-11.0447
ಷ	-11.0447
▁ನಿಮ	-11.0447
▁ಪ್ರ	-11.0447
▁ಯಾವುದ	-11.0447
▁spider	-11.0447
ತ್	-11.0447
▁jar	-11.045
agged	-11.0452
▁temporarily	-11.0453
ತಿ	-11.0453
nell	-11.046
story	-11.0463
▁hamilton	-11.0464
▁scotland	-11.0464
government	-11.0464
▁depth	-11.0466
▁bashar	-11.0467
check	-11.0467
▁respectively	-11.0469
▁hernandez	-11.0475
▁obesity	-11.0475
▁spotlight	-11.0483
▁sixth	-11.0483
erson	-11.0487
▁politician	-11.0491
▁tourist	-11.0494
▁cav	-11.0497
▁steal	-11.0497
▁hind	-11.0498
▁lauren	-11.0499
▁tremendous	-11.0503
▁throwing	-11.0503
▁subway	-11.0505
▁owe	-11.0505
▁ಬ	-11.0506
▁dealer	-11.0508
▁surgeon	-11.0509
52	-11.051
69	-11.0513
▁judicial	-11.0514
▁carr	-11.0515
▁gill	-11.0516
▁listening	-11.0519
▁legend	-11.0522
ache	-11.0523
▁factory	-11.0527
▁coup	-11.0529
▁duck	-11.0529
assad	-11.0532
▁kasich	-11.0537
▁overturn	-11.0537
▁ignored	-11.0551
▁openly	-11.0551
phe	-11.0552
0.0	-11.0553
▁exhaust	-11.0553
▁promoting	-11.0559
▁gallery	-11.056
▁safely	-11.0561
▁proven	-11.0565
▁tackle	-11.0565
▁julie	-11.0567
▁50,000	-11.0567
▁graphic	-11.057
▁privilege	-11.057
▁astronaut	-11.0576
▁lean	-11.0579
wall	-11.0583
▁crop	-11.0585
▁ತ	-11.0585
▁kay	-11.0586
▁businessman	-11.0589
▁frozen	-11.0598
▁swedish	-11.0598
▁liver	-11.0599
▁convert	-11.0602
▁shower	-11.0604
▁addresses	-11.0606
▁ratio	-11.0609
▁navigat	-11.061
hm	-11.0615
▁600	-11.062
▁historian	-11.0621
▁fierce	-11.0621
oud	-11.0624
▁leon	-11.0625
bn	-11.0626
	-11.0626
▁analyses	-11.0627
▁tornado	-11.0627
▁adapt	-11.0632
▁occupy	-11.0632
▁cardinal	-11.0632
▁alleges	-11.0636
▁tries	-11.0637
▁investigative	-11.0644
▁swimming	-11.0644
▁latter	-11.0645
▁disgust	-11.0649
▁starbucks	-11.0649
shaw	-11.0652
aya	-11.0659
olo	-11.066
▁examination	-11.0661
▁transaction	-11.0661
:	-11.0668
action	-11.0669
▁elaborate	-11.0672
▁harbor	-11.0674
▁espn	-11.0678
▁separat	-11.0679
▁hiring	-11.0681
▁publish	-11.0683
▁katie	-11.0683
▁fluid	-11.0683
▁exec	-11.0688
▁jeffrey	-11.0689
▁excuse	-11.069
▁humor	-11.069
▁impression	-11.0695
▁kidney	-11.0696
▁mitch	-11.0697
▁dish	-11.0698
▁distributed	-11.07
▁okay	-11.0708
▁escort	-11.0712
▁swat	-11.0717
▁stabbed	-11.0717
▁breathing	-11.0724
▁migrants	-11.073
▁nigeria	-11.0735
▁journalism	-11.0737
▁partisan	-11.074
guard	-11.0741
virtually	-11.0742
,0	-11.0744
▁handgun	-11.0746
▁casino	-11.0746
▁scrap	-11.0759
▁ridiculous	-11.0763
▁fragment	-11.0763
▁uncovered	-11.0766
▁chill	-11.0768
lev	-11.0769
▁conceal	-11.0769
shire	-11.0773
▁fuck	-11.0773
▁samsung	-11.0775
▁sperm	-11.0776
▁discipline	-11.078
▁herald	-11.0785
▁terminal	-11.0787
▁magnitude	-11.0791
▁surrender	-11.0798
▁notorious	-11.0798
dicating	-11.08
▁friendly	-11.0803
efficient	-11.0803
school	-11.0808
▁chart	-11.0814
▁impose	-11.0824
letting	-11.0825
onic	-11.0825
▁opponent	-11.083
▁declaration	-11.0842
▁obligation	-11.0842
▁burial	-11.0843
pul	-11.0846
▁tired	-11.0848
▁streaming	-11.0854
▁creator	-11.0856
▁demonstrations	-11.0856
▁rough	-11.086
▁generated	-11.087
▁managing	-11.0878
▁prosecute	-11.0879
▁pile	-11.0881
▁releasing	-11.0884
▁treating	-11.0885
▁pictured	-11.0885
▁cease	-11.0887
▁noon	-11.0887
▁toilet	-11.0888
gio	-11.0889
▁militia	-11.089
▁ordinary	-11.089
▁staffers	-11.0892
▁fred	-11.0893
▁joan	-11.0893
▁witnessed	-11.0897
▁blaze	-11.0898
▁exciting	-11.0902
▁reopen	-11.0902
▁lac	-11.0907
▁agriculture	-11.0908
▁250	-11.0908
▁counterpart	-11.0909
▁modest	-11.0911
▁regulation	-11.0913
▁integrat	-11.0914
▁pediatric	-11.0919
:10	-11.0927
▁farmers	-11.0932
ural	-11.0933
▁carries	-11.0935
▁romantic	-11.0941
▁nutrition	-11.0949
▁closure	-11.0949
▁belonging	-11.0949
▁dynamic	-11.0954
▁junior	-11.0954
▁hike	-11.0955
▁franco	-11.0955
▁commonly	-11.0955
▁madison	-11.0955
worm	-11.0959
▁authentic	-11.096
▁eligible	-11.096
▁identification	-11.0966
▁asylum	-11.0966
▁cancel	-11.0966
▁competitor	-11.0972
▁cuban	-11.0977
▁partly	-11.0978
▁grim	-11.0979
▁conclude	-11.0979
▁install	-11.0985
▁beloved	-11.099
▁slide	-11.0992
▁prompt	-11.0994
▁tattoo	-11.1001
▁devastated	-11.1001
▁dennis	-11.1002
urg	-11.1003
▁fee	-11.1004
▁1.2	-11.1007
tail	-11.1012
▁scream	-11.1013
▁taught	-11.1014
▁contributions	-11.1018
▁arena	-11.1018
▁jeremy	-11.1025
▁garcia	-11.1026
▁flowers	-11.1032
▁troubled	-11.1039
hap	-11.1053
▁implications	-11.1055
ryl	-11.1056
▁similarly	-11.1056
box	-11.1064
▁viewing	-11.1065
▁gunfire	-11.1068
▁praise	-11.1069
▁clerk	-11.1072
▁800	-11.1076
▁riding	-11.108
rel	-11.1085
def	-11.1088
▁expecting	-11.1088
▁iconic	-11.109
▁mut	-11.1091
▁bath	-11.1091
worthy	-11.1097
▁surf	-11.1102
▁violat	-11.1107
▁lynch	-11.1108
east	-11.1108
lateral	-11.1109
▁demonstrated	-11.1111
▁bite	-11.1121
▁2020	-11.1124
▁sentiment	-11.1125
lik	-11.1128
▁humanity	-11.1128
▁constantly	-11.1129
▁zealand	-11.1131
▁feeding	-11.1133
▁recommendations	-11.1134
▁manufacturing	-11.1137
▁rachel	-11.1143
▁funded	-11.1148
▁earnings	-11.1152
band	-11.1153
▁luxury	-11.1155
▁commerce	-11.1161
hic	-11.1162
▁denounc	-11.1165
▁mainstream	-11.1168
▁asteroid	-11.1173
▁musician	-11.1175
▁involves	-11.1176
▁donated	-11.1178
▁denies	-11.1181
:40	-11.1181
▁confront	-11.1182
▁intercept	-11.1192
▁deemed	-11.1197
▁championship	-11.1198
▁bang	-11.1199
ulation	-11.1202
▁contributing	-11.1203
▁speculate	-11.1203
▁pollution	-11.1209
▁statistical	-11.1209
▁assumed	-11.1211
▁drought	-11.1215
agging	-11.1217
▁120	-11.1217
▁freed	-11.1218
▁boxes	-11.122
▁supporter	-11.123
▁divers	-11.1232
▁encouraging	-11.1233
▁technologies	-11.1239
▁arriving	-11.1245
▁pride	-11.1254
▁hazard	-11.1257
▁promotion	-11.1257
▁rear	-11.1257
▁formation	-11.1261
▁1993	-11.1262
▁promising	-11.1263
▁weiner	-11.1265
uv	-11.1269
▁rodriguez	-11.1269
▁tsa	-11.1272
uz	-11.1274
▁gabriel	-11.1275
una	-11.1277
▁duke	-11.1284
▁inspection	-11.1285
gui	-11.1285
▁courthouse	-11.1294
100	-11.1294
▁citizenship	-11.1301
▁employed	-11.1307
▁differ	-11.1309
▁invasion	-11.1311
▁beef	-11.1312
▁abused	-11.1312
▁nba	-11.1313
lc	-11.1315
▁bust	-11.1317
▁sullivan	-11.1317
▁focusing	-11.1319
▁shouldn	-11.132
▁equally	-11.1322
enberg	-11.1322
▁stanford	-11.1324
▁memories	-11.1325
▁burst	-11.1325
member	-11.1332
▁privately	-11.1334
▁enjoyed	-11.1336
▁recession	-11.1342
▁refusing	-11.1342
▁collaborat	-11.1347
▁baptist	-11.1348
▁excessive	-11.135
▁campbell	-11.1354
▁buzz	-11.1356
▁initiat	-11.1357
▁emerging	-11.136
▁verizon	-11.136
▁racism	-11.136
eastern	-11.1372
▁gawker	-11.1372
▁sketch	-11.1372
versus	-11.1374
nova	-11.1378
▁extension	-11.1384
▁android	-11.1385
▁poster	-11.1387
tag	-11.1388
▁empire	-11.1391
▁occupation	-11.1397
▁pharma	-11.1397
▁pap	-11.1399
person	-11.14
just	-11.1408
▁knocked	-11.1411
▁architect	-11.1415
▁vow	-11.1416
ij	-11.1417
borne	-11.1421
3,000	-11.1422
▁admission	-11.1423
▁passion	-11.1425
asi	-11.1429
▁victor	-11.143
▁1992	-11.1438
▁publishing	-11.1441
▁antibiotic	-11.1452
▁transcript	-11.1458
ben	-11.146
▁sunni	-11.1467
▁passport	-11.1468
▁mitchell	-11.1471
▁submit	-11.1473
▁tons	-11.1474
▁kushner	-11.1476
▁parenthood	-11.1477
▁involve	-11.1479
▁tube	-11.148
hard	-11.1481
▁descend	-11.1483
▁electricity	-11.1487
awa	-11.1491
ense	-11.1493
▁montana	-11.1496
▁pause	-11.1496
▁tampa	-11.1497
▁juvenile	-11.1501
▁scoop	-11.1501
suit	-11.1501
▁outlin	-11.1506
gov	-11.1506
▁kremlin	-11.1507
▁brotherhood	-11.1509
▁manafort	-11.1513
▁ultimate	-11.1514
▁deeper	-11.1519
▁fleet	-11.1521
▁disclose	-11.1529
hem	-11.1532
▁pole	-11.1535
▁taiwan	-11.1544
▁kanye	-11.1544
▁experimental	-11.1552
▁horizon	-11.1557
ography	-11.1563
▁intellectual	-11.1563
▁manchester	-11.1563
▁eagle	-11.1569
▁barry	-11.157
▁dive	-11.1576
▁demonstration	-11.1583
▁angela	-11.1587
▁coincide	-11.1588
▁beverage	-11.1588
▁prompting	-11.1593
▁coat	-11.1593
▁antarctic	-11.1594
▁hardly	-11.16
▁opioid	-11.16
▁dug	-11.1604
▁karen	-11.161
▁suspension	-11.1613
▁fever	-11.1613
yard	-11.1614
▁stall	-11.1617
▁dropping	-11.1628
▁rosa	-11.1636
▁tehran	-11.1638
▁objective	-11.164
▁jun	-11.1654
▁conn	-11.1655
▁backlash	-11.1657
▁competing	-11.1657
▁critic	-11.1667
▁hopefully	-11.1668
▁grey	-11.1674
▁jackie	-11.1674
▁mortgage	-11.1675
▁unidentified	-11.1675
▁gym	-11.1684
▁dim	-11.1684
▁forgive	-11.1686
party	-11.1686
▁horrific	-11.1688
▁burglar	-11.1701
▁flames	-11.1703
▁latin	-11.1703
▁entitled	-11.1707
▁transported	-11.1708
▁equality	-11.1708
▁lend	-11.1709
▁juan	-11.1714
▁cheese	-11.1715
▁calculated	-11.1718
▁titled	-11.1719
▁adventure	-11.172
▁advocacy	-11.172
▁ghost	-11.172
▁registration	-11.172
▁accuse	-11.172
▁classroom	-11.1722
▁challenged	-11.1727
▁terry	-11.1728
▁accountable	-11.173
▁educat	-11.1731
▁pelosi	-11.1732
▁password	-11.1733
▁rapper	-11.1736
▁smash	-11.1752
▁destination	-11.1755
▁unrest	-11.1757
vik	-11.1757
▁20,000	-11.1757
▁misdemeanor	-11.1757
▁fleeing	-11.1761
▁item	-11.1761
script	-11.1762
▁brady	-11.1763
▁welcomed	-11.1763
▁fundraising	-11.1764
▁regulatory	-11.1764
▁geographic	-11.1764
▁glenn	-11.1772
▁loving	-11.1773
true	-11.1775
▁generate	-11.1775
▁hypo	-11.1776
screen	-11.178
▁slave	-11.1781
:50	-11.1781
name	-11.1788
crat	-11.179
metric	-11.179
ibility	-11.1796
▁celebrated	-11.1797
vil	-11.1801
▁irish	-11.1803
▁insurgent	-11.1815
▁nixon	-11.1815
▁producing	-11.1815
hin	-11.182
▁contend	-11.1821
▁wayne	-11.1821
▁cinema	-11.1824
under	-11.1827
▁abbott	-11.1827
▁poland	-11.1841
▁flooded	-11.1842
▁declare	-11.1851
▁perception	-11.1853
▁dolphin	-11.1853
▁cm	-11.1854
jan	-11.1856
▁retriev	-11.1859
▁interstate	-11.1862
▁ashley	-11.1863
▁municipal	-11.1866
▁shipping	-11.1866
▁accidentally	-11.1866
▁preventing	-11.1867
security	-11.1869
▁depart	-11.1871
▁spike	-11.1874
▁comply	-11.1877
▁dated	-11.1881
▁renew	-11.1881
▁martinez	-11.1882
▁documented	-11.1882
58	-11.1883
▁contradict	-11.1885
▁judiciary	-11.1885
▁boeing	-11.1886
▁suburban	-11.189
▁jeb	-11.1895
▁evaluation	-11.1898
riv	-11.1899
million	-11.1912
,9	-11.1915
▁charging	-11.1917
▁outdoor	-11.1918
▁furious	-11.1918
▁trap	-11.1932
▁perfectly	-11.1934
▁oak	-11.1936
▁tract	-11.1937
▁clash	-11.1947
▁swim	-11.1948
▁fixed	-11.1953
leaning	-11.1955
risk	-11.1959
▁pants	-11.1961
uni	-11.197
▁gentle	-11.1972
▁remembered	-11.1972
▁fool	-11.1977
wald	-11.1979
▁breakfast	-11.1982
▁define	-11.1985
▁levin	-11.1988
▁briefed	-11.1994
▁princess	-11.1995
▁blunt	-11.1996
▁nightmare	-11.2001
▁stir	-11.2002
▁workplace	-11.2008
▁nobel	-11.2013
▁dancing	-11.2014
▁ignore	-11.2016
▁analyzed	-11.2016
▁labour	-11.2017
▁monster	-11.2019
51	-11.2024
▁seizure	-11.2027
▁tumor	-11.2029
▁airplane	-11.2034
▁possess	-11.2038
▁cabin	-11.2038
▁autism	-11.2047
▁domain	-11.2047
▁siblings	-11.2047
▁vegetable	-11.2053
▁copies	-11.2059
▁dir	-11.2059
keeper	-11.2059
▁confronted	-11.2061
▁neu	-11.2063
▁lifted	-11.2068
chief	-11.2069
patriot	-11.2074
▁affecting	-11.2077
▁interrupt	-11.2079
▁dubbed	-11.2079
pay	-11.2079
glu	-11.2082
issa	-11.2084
▁tune	-11.2086
▁qatar	-11.2092
▁pepper	-11.2093
▁stunt	-11.2094
▁rage	-11.2097
▁nicole	-11.2099
▁baghdad	-11.2101
▁playbook	-11.2103
▁dictator	-11.2106
▁fulfill	-11.2107
▁incorrect	-11.2112
income	-11.2114
lab	-11.2117
▁container	-11.2119
▁kidnapped	-11.2119
▁bible	-11.2121
▁sensor	-11.2124
▁slammed	-11.2125
▁discharge	-11.2132
regulat	-11.2135
▁theories	-11.2136
▁wrapped	-11.2138
▁colombia	-11.2138
▁tourism	-11.2144
▁damaging	-11.2146
▁prisoner	-11.2147
▁juice	-11.2149
▁superintendent	-11.2152
▁impressive	-11.2158
▁petraeus	-11.2158
▁engaging	-11.2158
▁boast	-11.2158
▁serial	-11.2161
▁loaded	-11.2163
▁unacceptable	-11.2165
▁variation	-11.2165
,5	-11.2174
▁cape	-11.218
▁travell	-11.2183
mobile	-11.2186
▁seth	-11.2187
▁ownership	-11.2188
▁hammer	-11.2189
hole	-11.219
▁crimea	-11.2197
▁surfaced	-11.2199
▁gm	-11.2203
▁regulate	-11.2204
▁lengthy	-11.2204
▁confusion	-11.2204
▁portrait	-11.2204
▁motivated	-11.2206
▁achievement	-11.2209
▁budd	-11.221
winning	-11.221
occupied	-11.2211
▁reckless	-11.2218
▁acquired	-11.2218
▁improving	-11.2218
▁weaken	-11.222
▁convey	-11.2224
▁kil	-11.2225
▁leap	-11.2227
iq	-11.2229
aught	-11.223
▁jacket	-11.223
▁lang	-11.2239
▁launching	-11.2249
▁overhaul	-11.2251
▁stern	-11.2252
▁hbo	-11.2255
▁smooth	-11.2258
▁starring	-11.2261
/2014	-11.2264
▁nominated	-11.2271
new	-11.2271
▁expedition	-11.2284
▁lindsey	-11.2284
▁ignor	-11.2289
▁formula	-11.2289
▁1989	-11.229
▁warehouse	-11.2291
that	-11.2292
▁mild	-11.2293
▁andrea	-11.2298
▁habitat	-11.2298
▁frustrated	-11.2298
▁expire	-11.2298
luc	-11.2299
▁1991	-11.2303
▁variable	-11.2304
▁donation	-11.2306
▁urgent	-11.2306
▁tab	-11.2311
▁climbing	-11.2313
ré	-11.2319
▁grip	-11.2322
▁reminder	-11.2323
▁friendship	-11.2325
▁venue	-11.2338
▁harper	-11.2342
▁innovation	-11.2345
▁gesture	-11.2345
▁youngest	-11.2345
▁gordon	-11.2352
▁ballistic	-11.236
▁retreat	-11.2361
hara	-11.2361
▁donate	-11.2364
▁canyon	-11.2365
mouth	-11.2367
rock	-11.2371
logic	-11.2372
▁dramatically	-11.2374
▁peterson	-11.2383
▁guidance	-11.2385
▁mechanic	-11.2386
▁organizers	-11.2387
▁charter	-11.2388
▁delaware	-11.2392
rill	-11.2393
▁discount	-11.2394
▁intervene	-11.2395
▁subsequently	-11.2396
camp	-11.2398
wife	-11.2398
▁stole	-11.2398
▁chocolate	-11.2398
▁vermont	-11.2413
conscious	-11.2413
▁naturally	-11.2416
rest	-11.2416
anticipated	-11.2423
▁administer	-11.2425
▁occasionally	-11.2428
▁emanuel	-11.2432
▁epic	-11.2434
wash	-11.2435
▁tyler	-11.2436
▁delivering	-11.2439
▁overcome	-11.244
▁grin	-11.2441
▁consistently	-11.2444
mur	-11.2451
▁expanding	-11.2451
▁dirty	-11.2453
▁julian	-11.2453
ego	-11.2454
▁celebrating	-11.2466
▁perceived	-11.2466
▁speeches	-11.2467
▁element	-11.2472
▁operated	-11.2477
▁veto	-11.2481
▁popularity	-11.2486
▁erupted	-11.2487
▁introduce	-11.2495
▁extinction	-11.2498
▁suing	-11.2498
▁chelsea	-11.25
▁netherlands	-11.2507
▁etc	-11.2509
1,000	-11.251
▁filmmaker	-11.251
piece	-11.2513
▁honey	-11.2514
▁reactor	-11.2521
▁lgbt	-11.2521
active	-11.2524
▁epidemic	-11.2528
▁robinson	-11.2531
▁credible	-11.2534
qaeda	-11.2535
▁1950	-11.2535
▁stealing	-11.2537
walk	-11.254
▁injection	-11.2541
▁oliver	-11.2548
,200	-11.2554
▁casual	-11.2555
▁kon	-11.2556
bie	-11.256
▁transit	-11.2564
▁certificate	-11.2569
▁accuracy	-11.2576
lio	-11.2582
▁condolences	-11.2582
▁endangered	-11.2583
▁phenomenon	-11.2589
▁kiev	-11.2592
▁angle	-11.2594
▁selfie	-11.2598
went	-11.2598
▁profound	-11.2603
round	-11.2606
▁strongest	-11.261
▁mansion	-11.261
▁virgin	-11.2612
▁kurdish	-11.2617
▁bachmann	-11.2617
▁attendant	-11.2617
▁stunned	-11.2631
▁defender	-11.2633
treat	-11.2641
▁revealing	-11.2643
▁awful	-11.2644
cock	-11.2649
▁electro	-11.2661
▁cream	-11.2662
:35	-11.2663
▁curb	-11.2667
▁literature	-11.2672
▁demographic	-11.2673
▁uprising	-11.2673
▁spit	-11.2676
▁sydney	-11.2679
▁searches	-11.2691
▁blanket	-11.2695
▁pedestrian	-11.27
▁spacecraft	-11.2701
▁vest	-11.2702
▁unconscious	-11.2706
track	-11.2706
▁stunning	-11.2707
▁liz	-11.2708
▁scope	-11.2713
▁flown	-11.2713
▁scalia	-11.2714
isation	-11.2721
▁statute	-11.2722
▁underwater	-11.2722
▁gor	-11.2723
▁momentum	-11.2724
▁sacrifice	-11.2728
▁acute	-11.2729
aria	-11.2731
▁quietly	-11.2733
▁mandatory	-11.2735
president	-11.2741
▁grief	-11.2742
▁singing	-11.2744
▁bradley	-11.2745
▁perez	-11.2747
▁pleased	-11.2751
white	-11.2751
▁actively	-11.2752
▁survivor	-11.2754
▁swept	-11.2756
▁responders	-11.2759
3.5	-11.276
lift	-11.2761
▁wider	-11.2763
▁fraternity	-11.2763
stock	-11.2764
▁skip	-11.2772
▁requirement	-11.2772
isa	-11.2772
▁consumed	-11.2782
▁sacramento	-11.2784
▁tournament	-11.2784
▁cartoon	-11.2784
▁watson	-11.2784
▁swiss	-11.2784
▁lou	-11.2785
which	-11.2785
▁pok	-11.2787
▁firearm	-11.279
▁longest	-11.279
▁facial	-11.2791
▁consulate	-11.2798
▁besides	-11.2804
▁disabled	-11.2805
▁scr	-11.2812
section	-11.2816
▁predecessor	-11.2819
nick	-11.2821
▁landmark	-11.2822
▁frequency	-11.2826
▁holocaust	-11.2826
▁bread	-11.2829
▁floating	-11.2845
▁yorker	-11.2847
▁ammunition	-11.2847
▁medium	-11.2849
▁bleeding	-11.2854
▁abdul	-11.2855
traumatic	-11.2857
▁determination	-11.2858
▁deleted	-11.2859
▁salmon	-11.2864
▁beaten	-11.2866
cca	-11.287
▁duties	-11.2871
▁diverse	-11.2875
beat	-11.2876
▁sandra	-11.2882
paid	-11.2883
▁relax	-11.2883
▁ailes	-11.289
▁lottery	-11.289
▁interference	-11.289
▁tooth	-11.2894
▁renewed	-11.2894
▁unsuccessful	-11.2897
▁centuries	-11.2897
uma	-11.2899
▁advisory	-11.2902
▁treaty	-11.2905
▁huckabee	-11.2911
▁bangladesh	-11.2918
▁triple	-11.2919
▁pickup	-11.2919
▁stability	-11.292
▁scary	-11.2922
▁jaw	-11.2924
▁uncomfortable	-11.2925
/2015	-11.2926
▁categories	-11.2933
▁collision	-11.2933
▁recipient	-11.2933
cola	-11.2936
▁convince	-11.294
▁stark	-11.2942
tolerance	-11.2945
▁newborn	-11.2951
▁chef	-11.2953
▁endorsed	-11.2955
▁bloom	-11.2961
▁bargain	-11.2961
▁refin	-11.2969
▁translate	-11.2969
wide	-11.297
▁dementia	-11.2975
▁partially	-11.2976
▁stopping	-11.2979
▁whip	-11.2985
▁safer	-11.2992
▁absolute	-11.2994
▁silicon	-11.2997
▁toddler	-11.2999
▁throne	-11.3006
▁subscribe	-11.3016
▁gaga	-11.3017
▁enterprise	-11.3018
▁wallace	-11.3022
▁colbert	-11.3027
▁suck	-11.3027
heim	-11.3028
▁steer	-11.3031
▁inspiration	-11.3033
▁weighed	-11.3034
▁instruct	-11.3038
▁propaganda	-11.304
▁crow	-11.3046
▁prediction	-11.3047
fiance	-11.3049
▁flee	-11.3052
▁contributor	-11.3054
▁gaddafi	-11.3062
▁singapore	-11.3062
▁separately	-11.3062
kan	-11.3062
▁memoir	-11.3066
▁limb	-11.3068
▁confused	-11.3069
▁montgomery	-11.3076
▁fabric	-11.3076
▁interim	-11.3079
▁participation	-11.3083
course	-11.3086
▁kirk	-11.3094
controlled	-11.3095
▁volcano	-11.3097
▁devoted	-11.3105
▁palmer	-11.311
▁communist	-11.3112
▁nypd	-11.3112
▁polish	-11.3112
▁cox	-11.3114
with	-11.3121
▁securities	-11.3127
trust	-11.3134
▁cemetery	-11.3141
▁garage	-11.3142
▁jolie	-11.3144
▁addict	-11.3144
▁carpet	-11.3149
▁withdrawal	-11.3149
▁700	-11.3152
|	-11.316
▁inauguration	-11.3163
▁exploded	-11.3166
▁jefferson	-11.3171
▁salary	-11.3173
enko	-11.3174
▁bau	-11.3179
▁chick	-11.3181
▁thanksgiving	-11.3185
▁spare	-11.3186
▁complications	-11.3193
▁uncertainty	-11.3194
▁transmission	-11.32
uru	-11.3202
▁obstruct	-11.3204
▁defensive	-11.3207
shaped	-11.3207
▁brush	-11.3212
▁poet	-11.3213
▁straw	-11.3216
▁intern	-11.3218
▁candidacy	-11.3222
▁steady	-11.3222
▁athletic	-11.3229
▁invitation	-11.3229
▁classmate	-11.3232
▁adequate	-11.3236
▁woke	-11.3239
▁esp	-11.3239
stream	-11.3244
▁heaven	-11.3244
▁embryo	-11.3245
kir	-11.3251
digit	-11.3251
ಾಗ	-11.3251
▁recovering	-11.3252
▁von	-11.3252
▁mason	-11.3256
▁skill	-11.3263
century	-11.3266
▁columbus	-11.3273
▁advertisement	-11.3283
▁render	-11.3285
▁nickname	-11.3289
▁cooperate	-11.329
▁ambition	-11.3295
▁athlete	-11.33
ಟ	-11.3302
▁ಮಾ	-11.3303
▁linda	-11.3308
home	-11.3309
▁ಮತ್ತ	-11.331
▁ruth	-11.3311
▁processes	-11.3313
0.5	-11.3315
identifi	-11.3317
▁ವಿಷಯ	-11.3317
,6	-11.3318
ೆಯ	-11.3318
▁appoint	-11.3318
show	-11.3323
▁drag	-11.3325
▁ಹಿಂಬಾಲಿಸ	-11.3325
▁belgium	-11.3325
▁throat	-11.3325
▁ತ್ವರಿತ	-11.3325
ೆಗಳ	-11.3326
after	-11.3328
▁bloody	-11.3329
▁suspend	-11.3335
▁excellent	-11.334
:05	-11.3341
▁pardon	-11.3342
▁elder	-11.3344
▁eclipse	-11.3347
/16	-11.3347
▁cake	-11.3355
▁membership	-11.3355
▁laptop	-11.3355
▁charm	-11.3355
▁clown	-11.3356
elo	-11.3359
▁allegation	-11.336
▁hik	-11.3362
▁costume	-11.3363
▁cargo	-11.3367
▁achieved	-11.3384
▁grandfather	-11.3384
▁pav	-11.3387
▁tension	-11.3388
zu	-11.3389
▁distinguish	-11.3392
▁skeleton	-11.3392
▁filter	-11.3392
▁drain	-11.3398
▁200,000	-11.3399
▁nowhere	-11.3399
▁replica	-11.3401
▁attractive	-11.3411
▁potter	-11.3411
▁midterm	-11.3411
▁parish	-11.3411
▁underway	-11.342
▁metropolitan	-11.3422
▁nightclub	-11.3422
▁wipe	-11.3423
▁jamie	-11.3431
▁bride	-11.3436
▁fal	-11.3438
▁meaningful	-11.3439
▁rescuers	-11.344
:25	-11.344
▁pretend	-11.3445
▁robust	-11.3452
▁specimen	-11.3459
▁homosexual	-11.3459
▁retire	-11.3466
▁merit	-11.3466
▁miracle	-11.3467
▁powder	-11.3467
▁indicted	-11.3467
▁hollande	-11.3467
▁chancellor	-11.3474
▁collecting	-11.3475
▁instructions	-11.3475
▁severely	-11.3478
▁conventional	-11.3481
▁pittsburgh	-11.3482
▁absent	-11.3482
▁charleston	-11.3483
▁jared	-11.3483
▁lamb	-11.3489
▁haiti	-11.349
▁menu	-11.3495
▁plunge	-11.3497
▁upgrade	-11.35
▁johnny	-11.3504
▁favour	-11.3504
▁30,000	-11.3505
▁sharply	-11.3508
dependent	-11.3511
▁interact	-11.3518
,7	-11.352
▁mineral	-11.3529
ucci	-11.3533
▁theatre	-11.3534
▁colo	-11.3541
▁credibility	-11.3542
▁faculty	-11.355
plus	-11.3552
▁keen	-11.3552
▁evolved	-11.3554
▁hedge	-11.3556
▁participating	-11.3557
▁basement	-11.356
▁damn	-11.356
▁fundraiser	-11.3565
▁improper	-11.3565
▁melissa	-11.3565
▁owen	-11.3567
▁assassination	-11.3568
▁accuser	-11.3569
▁remark	-11.3571
▁educational	-11.3572
▁align	-11.3574
connor	-11.3591
▁motivation	-11.3592
▁minneapolis	-11.3595
▁crackdown	-11.3597
▁lesbian	-11.3603
▁tsunami	-11.3603
▁mug	-11.3605
▁wishes	-11.3607
▁distract	-11.3607
▁reliable	-11.3611
▁passes	-11.3611
will	-11.3611
reilly	-11.3612
▁injur	-11.3626
▁enemies	-11.3626
▁influential	-11.3626
▁federation	-11.3626
▁sensation	-11.3627
▁fracture	-11.3633
▁pistol	-11.3634
▁mob	-11.3637
▁thu	-11.3638
▁tenure	-11.3639
▁cincinnati	-11.3641
▁pursuing	-11.3641
▁casualties	-11.3641
▁banner	-11.3647
▁mosquito	-11.3649
▁balloon	-11.365
▁frankly	-11.3652
quarter	-11.3653
▁virtual	-11.3654
▁flavor	-11.3665
▁brett	-11.367
▁deceased	-11.3672
000	-11.3673
▁sudan	-11.3673
▁brick	-11.3675
▁aggravated	-11.3679
▁nude	-11.368
introduc	-11.3692
▁hostile	-11.3693
▁assertion	-11.3693
▁kabul	-11.3698
phone	-11.37
▁brilliant	-11.3702
▁submarine	-11.371
▁disappear	-11.3714
▁uncertain	-11.3724
▁logo	-11.3726
▁applause	-11.3726
▁revenge	-11.3726
▁1988	-11.3732
▁wang	-11.374
▁township	-11.3742
▁nail	-11.3742
▁biology	-11.3744
▁residential	-11.3744
▁marshal	-11.3745
▁emma	-11.3748
▁mistaken	-11.3749
▁incumbent	-11.3756
▁sweeping	-11.3757
▁evacuate	-11.376
▁sophisticated	-11.3764
tun	-11.3769
▁qualified	-11.3772
▁ferry	-11.3772
child	-11.3775
zel	-11.3778
proving	-11.3781
▁harmful	-11.3787
▁lucas	-11.3788
▁tripoli	-11.379
▁battl	-11.3791
▁organize	-11.3793
▁transparency	-11.3795
▁shan	-11.3797
food	-11.3799
▁threshold	-11.3803
▁500,000	-11.3807
▁consensus	-11.3811
▁surviving	-11.3811
▁bennett	-11.3811
▁amnesty	-11.3826
9,000	-11.3827
▁lil	-11.3831
▁urine	-11.3835
▁cuomo	-11.3842
▁publicity	-11.3845
▁thor	-11.3849
▁opera	-11.3849
▁contrary	-11.385
▁industries	-11.385
▁entrepreneur	-11.3858
▁reconstruct	-11.3858
▁awake	-11.3858
▁rabbi	-11.3859
▁resolved	-11.3862
▁blank	-11.3864
▁constitute	-11.3865
▁lover	-11.3867
▁difficulty	-11.3872
▁optimistic	-11.3873
▁compil	-11.3878
▁erdogan	-11.3881
▁blogger	-11.3885
▁norway	-11.3891
▁rumor	-11.3892
ographic	-11.3894
▁monkey	-11.3898
▁jill	-11.3899
▁mentally	-11.3899
▁quarterback	-11.39
▁disputed	-11.3902
▁precaution	-11.3905
▁widow	-11.3905
:55	-11.3905
▁verbal	-11.3915
▁installed	-11.3915
▁functional	-11.3916
▁abandon	-11.3926
▁universities	-11.3928
▁reinforce	-11.3928
▁glasses	-11.3931
▁ranger	-11.3931
▁unfortunate	-11.3934
▁kenneth	-11.3936
osis	-11.3936
▁trafficking	-11.394
▁1986	-11.3943
▁osama	-11.3944
▁ethical	-11.3944
▁switzerland	-11.3952
▁ahmed	-11.3953
▁employ	-11.3962
guil	-11.3965
▁maj	-11.3967
▁boycott	-11.3969
▁freak	-11.3971
▁brazilian	-11.3972
▁mick	-11.3973
▁omar	-11.3978
▁marie	-11.3981
▁huffington	-11.3983
▁sandusky	-11.3983
▁intensive	-11.3983
▁designat	-11.3984
amine	-11.3987
▁grocery	-11.3991
▁thailand	-11.3991
▁interpretation	-11.3992
▁leonard	-11.3993
▁poisoning	-11.3993
▁nebraska	-11.3999
▁rocky	-11.3999
▁wrongdoing	-11.3999
▁continuous	-11.4007
▁manuscript	-11.4007
▁blew	-11.4008
▁confessed	-11.4012
▁caribbean	-11.4015
▁presentation	-11.4016
▁gust	-11.4021
▁gala	-11.4021
▁contender	-11.4024
omy	-11.4024
▁costa	-11.4026
▁gibson	-11.4031
▁cure	-11.4033
▁nursing	-11.4039
etti	-11.4041
▁grain	-11.4045
▁assumption	-11.4047
▁plaza	-11.405
force	-11.4054
▁cohort	-11.4055
▁taxi	-11.4061
▁stephanie	-11.4063
▁secured	-11.4063
leigh	-11.4063
▁catherine	-11.4071
▁charlottesville	-11.4079
▁resource	-11.408
▁nationalist	-11.408
▁patriots	-11.408
▁helpful	-11.4082
▁outstanding	-11.4085
▁reynolds	-11.4087
▁stranded	-11.4087
▁emily	-11.4095
▁incentive	-11.4095
▁mutual	-11.4096
▁skeptical	-11.4103
▁timothy	-11.4103
▁criteria	-11.4111
▁investor	-11.4115
cott	-11.4115
▁tide	-11.4118
▁pine	-11.4119
▁priorities	-11.4122
▁yale	-11.4124
▁intersection	-11.4128
▁drum	-11.413
▁spencer	-11.4135
▁concede	-11.4136
▁dispatcher	-11.4138
▁gunmen	-11.4141
now	-11.4143
▁castle	-11.4143
▁duncan	-11.4144
▁latino	-11.4146
▁joked	-11.4149
▁jenner	-11.4154
▁broker	-11.4157
▁brooks	-11.4159
▁external	-11.4159
▁facilitat	-11.4159
▁crude	-11.4162
▁amber	-11.4164
▁pulse	-11.4168
▁travelers	-11.4168
▁brow	-11.4177
▁mala	-11.4187
▁fitness	-11.4191
▁denial	-11.4196
▁seventh	-11.4198
game	-11.4199
▁parliamentary	-11.4205
▁breitbart	-11.4207
▁suppress	-11.4207
▁nepal	-11.4208
▁oprah	-11.4216
▁steam	-11.4221
▁hughes	-11.4224
affiliated	-11.4228
▁relation	-11.4229
▁bland	-11.423
▁priebus	-11.4232
▁warrior	-11.4232
▁premier	-11.4238
▁preference	-11.4242
▁offshore	-11.4244
▁challenger	-11.4245
▁refuge	-11.4246
talk	-11.4258
▁intentionally	-11.4259
▁curious	-11.4259
▁buyers	-11.426
serving	-11.4262
▁oxford	-11.4264
▁inflation	-11.4264
▁awkward	-11.4272
examining	-11.4273
▁lawmaker	-11.4274
,400	-11.4278
▁grill	-11.4279
▁bullying	-11.4281
▁sneak	-11.4281
▁pension	-11.4282
▁significance	-11.4289
▁hardware	-11.4289
▁kristen	-11.4292
▁electrical	-11.4295
▁jurisdiction	-11.4297
▁nevertheless	-11.4297
▁standoff	-11.4298
,8	-11.4301
▁ethan	-11.4302
▁identical	-11.4305
▁carlos	-11.4319
▁gran	-11.432
▁reddit	-11.4322
▁flip	-11.4325
▁nathan	-11.4325
▁presumably	-11.433
▁telescope	-11.4338
▁genital	-11.4338
▁cage	-11.4346
▁shah	-11.4349
two	-11.4353
spiring	-11.4353
▁unarmed	-11.4354
▁creep	-11.4356
▁hunger	-11.4359
▁scratch	-11.4363
▁ignit	-11.4368
▁paramedic	-11.4371
gna	-11.4374
▁freeze	-11.4375
▁cafe	-11.4379
▁surprisingly	-11.4381
▁float	-11.4383
▁cope	-11.4386
▁sergeant	-11.4387
▁dignity	-11.4387
▁1.3	-11.4387
▁powell	-11.4394
▁congratulat	-11.4395
▁melania	-11.4395
▁arraign	-11.4404
▁telegraph	-11.4404
▁steep	-11.4406
▁arthur	-11.4406
▁verify	-11.4407
▁rebuild	-11.4408
▁liu	-11.4408
▁unlawful	-11.4412
▁gregory	-11.4413
▁irma	-11.4415
▁prescribe	-11.4415
▁reluctant	-11.442
▁idaho	-11.442
vir	-11.4421
control	-11.4424
▁solicit	-11.4437
▁pub	-11.4438
▁morsi	-11.4438
▁dumb	-11.4442
▁negotiating	-11.4445
▁wildfire	-11.4446
▁successor	-11.4447
▁christine	-11.4457
▁smiling	-11.4462
▁slap	-11.4465
▁baldwin	-11.447
greg	-11.4471
▁gab	-11.4478
▁separation	-11.4479
▁conway	-11.4481
▁homeowner	-11.4487
▁pioneer	-11.4495
▁choosing	-11.4495
▁isolation	-11.4495
dict	-11.4496
▁routinely	-11.4497
max	-11.4509
▁experiencing	-11.4511
▁deportation	-11.4512
▁grid	-11.4512
▁reception	-11.4512
▁bobby	-11.4516
▁billboard	-11.4522
▁systematic	-11.4523
▁captive	-11.4525
rose	-11.4526
▁accountability	-11.4526
▁bubble	-11.4528
▁bonus	-11.4533
▁observatory	-11.4537
▁stepping	-11.4545
▁capabilities	-11.4545
▁hydro	-11.4547
▁declar	-11.4554
health	-11.4555
▁heather	-11.4556
▁bailout	-11.4557
▁definitive	-11.4578
▁emmy	-11.459
▁accelerate	-11.4595
▁likelihood	-11.4595
▁manslaughter	-11.4595
▁pharmaceutical	-11.4595
▁hudson	-11.4595
▁homo	-11.46
▁archaeological	-11.4604
▁spectrum	-11.4604
▁sanchez	-11.4604
▁cluster	-11.4604
▁bulk	-11.4608
▁inspect	-11.4609
▁acceptable	-11.4611
▁diplomat	-11.4613
▁affirm	-11.4621
▁hashtag	-11.4621
▁molest	-11.4622
▁nyc	-11.4623
scot	-11.4625
,300	-11.4628
▁premature	-11.4637
▁litigation	-11.4637
▁slogan	-11.4638
▁outfit	-11.4641
▁mich	-11.4643
▁pursuit	-11.4646
▁deliberately	-11.4651
▁monica	-11.4656
▁excess	-11.466
:11	-11.4664
▁organic	-11.4665
▁kimmel	-11.4665
dell	-11.4671
▁emotion	-11.4672
▁rack	-11.4673
▁plug	-11.4675
▁accompany	-11.468
▁filibuster	-11.468
▁simultaneous	-11.468
▁compassion	-11.468
▁automatically	-11.468
▁wreckage	-11.4683
▁marshall	-11.4685
▁deploy	-11.4687
▁sustain	-11.4687
▁generous	-11.4689
▁knot	-11.4696
▁shouted	-11.4703
▁oval	-11.4703
▁fortunate	-11.4705
▁snyder	-11.4705
order	-11.4713
▁orientation	-11.4714
▁psychologist	-11.4715
▁spiritual	-11.4716
▁giuliani	-11.4722
▁unnamed	-11.4722
▁spouse	-11.4723
natal	-11.4728
▁neglect	-11.4731
▁till	-11.4732
▁partial	-11.4737
russian	-11.474
▁kara	-11.4743
▁absurd	-11.4748
▁everyday	-11.4748
▁foul	-11.4753
▁bolster	-11.4757
▁innocence	-11.4765
▁austria	-11.4765
▁shov	-11.4767
▁trademark	-11.4767
founded	-11.4769
who	-11.4773
▁gadhafi	-11.4774
▁penalties	-11.4774
▁psychiatric	-11.4774
▁approaches	-11.4774
▁bil	-11.4774
▁breakthrough	-11.4782
▁derail	-11.4782
▁acres	-11.4783
▁spicer	-11.4791
▁plague	-11.4794
▁honestly	-11.4797
▁shortage	-11.4798
▁gofundme	-11.4799
▁gorsuch	-11.4799
▁genome	-11.4801
▁persist	-11.4802
▁jesse	-11.4806
▁haley	-11.4806
▁catastrophic	-11.4808
▁130	-11.4808
▁respondents	-11.4808
▁empower	-11.4809
writer	-11.4812
▁troubling	-11.4816
▁stabbing	-11.4817
▁regain	-11.4817
▁array	-11.482
lago	-11.4821
▁columnist	-11.4825
▁slaughter	-11.4825
▁wireless	-11.4829
▁bergdahl	-11.4834
▁watts	-11.4834
▁underscore	-11.4834
estimat	-11.484
unconstitutional	-11.4842
▁broadway	-11.4849
▁earliest	-11.4851
▁deciding	-11.4851
▁kyle	-11.4854
▁thirty	-11.486
▁determin	-11.4861
▁deck	-11.4864
▁manufacture	-11.4864
▁cardiovascular	-11.4868
▁interrogation	-11.4873
▁nonetheless	-11.4877
▁precisely	-11.4877
▁monte	-11.4883
blown	-11.4894
▁supplier	-11.4894
▁assured	-11.4894
▁precedent	-11.4896
▁dirt	-11.4899
design	-11.49
▁hil	-11.49
▁eighth	-11.49
▁collaboration	-11.4904
▁brennan	-11.4912
▁contribution	-11.4912
▁backpack	-11.4918
▁florence	-11.492
▁kelley	-11.492
▁jake	-11.4921
▁slur	-11.4922
▁adoption	-11.4923
▁marvel	-11.4924
▁motorcycle	-11.4929
▁wu	-11.4932
▁endorse	-11.4937
▁propose	-11.4946
▁precise	-11.4946
:59	-11.4947
▁abrupt	-11.4955
▁mohamed	-11.4955
▁harrison	-11.4955
▁schu	-11.4956
▁justify	-11.4957
▁tariffs	-11.4964
▁maur	-11.4968
▁weekday	-11.4968
▁sandwich	-11.4973
▁medic	-11.4974
▁iceland	-11.4977
▁exceptional	-11.4978
▁socialist	-11.4986
▁diminish	-11.499
▁ambitious	-11.499
▁confederate	-11.499
▁mosul	-11.4991
▁compelling	-11.5008
▁hormone	-11.5008
other	-11.5008
▁griffin	-11.5016
threatening	-11.5021
pack	-11.5024
▁fantastic	-11.5025
smith	-11.5028
▁haul	-11.5031
western	-11.5031
militar	-11.5034
▁intimate	-11.5034
/2012	-11.5035
▁considerable	-11.504
▁pond	-11.504
▁bai	-11.5041
▁eruption	-11.5043
▁representation	-11.5045
▁walsh	-11.5048
▁wsj	-11.5053
▁julia	-11.5053
▁revised	-11.5053
▁historically	-11.506
▁hannah	-11.506
brand	-11.5061
▁postpone	-11.5065
▁bruis	-11.5067
▁evident	-11.5069
▁summary	-11.5069
▁hoax	-11.5082
▁contaminated	-11.5087
▁prevalence	-11.5087
▁saddened	-11.5087
▁clarify	-11.5087
▁lunar	-11.5087
▁exam	-11.5093
▁galaxy	-11.5096
▁detainees	-11.5104
▁tolerate	-11.5109
cell	-11.5109
▁infectious	-11.5113
▁schultz	-11.5113
banning	-11.512
▁unanimous	-11.5122
▁buzzfeed	-11.5122
▁strategies	-11.5122
▁embarrassing	-11.5127
▁garbage	-11.5131
▁vanished	-11.5131
▁yelling	-11.5131
▁1984	-11.5131
▁1979	-11.5132
▁dragged	-11.5134
▁lur	-11.5135
▁1.1	-11.5135
ಿಸ	-11.5138
▁winfrey	-11.514
:16	-11.514
owitz	-11.5141
▁legendary	-11.5142
▁greenhouse	-11.5144
▁corrupt	-11.5145
те	-11.515
ಸಿ	-11.5151
▁revive	-11.5152
▁thankful	-11.5152
▁decorat	-11.5155
▁cruel	-11.5157
▁250,000	-11.5162
▁permitted	-11.5163
▁samuel	-11.5167
▁mogul	-11.5167
wig	-11.5172
▁celeb	-11.5175
▁richmond	-11.5177
looking	-11.5177
▁dial	-11.5178
▁performer	-11.5184
▁levi	-11.5184
▁hijack	-11.5184
area	-11.5192
▁acquisition	-11.5193
▁slaying	-11.5194
▁fingerprint	-11.5194
▁conserv	-11.5195
▁hometown	-11.5199
370	-11.52
▁belgian	-11.5211
▁shrink	-11.5211
án	-11.5212
▁ordeal	-11.5212
▁dissent	-11.5213
▁preferred	-11.5214
▁invite	-11.5215
▁karzai	-11.522
▁shaking	-11.5227
▁emphasized	-11.5229
/2013	-11.523
qaida	-11.5238
▁pirate	-11.5242
то	-11.5248
▁ecosystem	-11.5256
▁parallel	-11.5256
4.5	-11.5257
▁gps	-11.526
▁advisor	-11.5268
▁arranged	-11.5274
▁fallout	-11.5278
▁interactive	-11.5279
fest	-11.5279
▁duration	-11.5281
▁brexit	-11.5283
▁puzzle	-11.5283
▁inherit	-11.5283
:01	-11.5284
:39	-11.5286
▁deployment	-11.5286
▁lightning	-11.5287
▁earnest	-11.5289
solely	-11.5291
▁absorb	-11.5292
▁digging	-11.5292
:14	-11.5298
blanc	-11.5301
▁karl	-11.5305
▁posing	-11.5308
▁unaware	-11.531
▁drift	-11.5311
▁gravity	-11.5319
▁harvest	-11.5328
▁jihad	-11.5334
▁technically	-11.5334
▁dodge	-11.5336
▁advise	-11.5337
▁distant	-11.5338
▁countless	-11.5338
▁siege	-11.534
▁commute	-11.5341
gress	-11.5342
▁1,500	-11.5344
▁exploration	-11.5346
▁outrageous	-11.5352
▁counselor	-11.5352
attracted	-11.5355
▁colour	-11.5357
▁trudeau	-11.5365
induced	-11.5368
,600	-11.5373
▁tabloid	-11.5374
▁tribal	-11.5378
▁href	-11.5378
▁concession	-11.5383
▁rampage	-11.5384
▁carney	-11.539
▁locate	-11.5401
▁guilt	-11.5406
▁willingness	-11.5409
▁lebanon	-11.541
▁primaries	-11.541
lich	-11.5411
▁mack	-11.5418
▁delegation	-11.5419
▁declining	-11.5419
▁rope	-11.542
▁vague	-11.5425
▁placing	-11.5429
▁lind	-11.543
▁misleading	-11.5438
▁patron	-11.5441
▁brewer	-11.5446
▁penis	-11.5446
▁assignment	-11.5447
▁blake	-11.5447
▁erect	-11.5461
▁klein	-11.5468
▁benedict	-11.5474
▁guitar	-11.5474
▁lava	-11.5482
▁margaret	-11.5483
▁quest	-11.5488
▁companion	-11.5493
▁stanley	-11.5493
▁bark	-11.5496
selling	-11.5503
▁macron	-11.5506
▁maintenance	-11.5511
▁rational	-11.5519
▁wooden	-11.5527
▁imminent	-11.5529
▁astronomer	-11.5529
▁disgrace	-11.5539
▁disrespect	-11.5548
▁tunisia	-11.5548
▁persistent	-11.555
:44	-11.5558
body	-11.5558
▁boil	-11.556
▁wales	-11.5563
▁sampling	-11.5567
flower	-11.5573
▁curve	-11.5578
:13	-11.5582
▁ugly	-11.5588
▁transparent	-11.5594
▁inventor	-11.5595
:12	-11.56
girl	-11.5601
▁geneva	-11.5602
▁vine	-11.5603
counterterrorism	-11.5604
▁tongue	-11.5605
▁cartel	-11.5608
▁temper	-11.5612
▁commentary	-11.5614
▁thunder	-11.5614
▁solidarity	-11.5622
▁lecture	-11.5622
▁sidewalk	-11.5625
:18	-11.5631
organ	-11.5632
▁tighten	-11.5632
▁fantasy	-11.5641
▁brandon	-11.5643
lian	-11.5647
ariz	-11.5648
store	-11.5648
▁rash	-11.565
▁prevail	-11.565
▁caucuses	-11.5653
▁aerial	-11.5654
▁bran	-11.5656
waiting	-11.5658
▁slash	-11.566
▁detection	-11.5665
vu	-11.5666
▁lens	-11.5669
▁unnecessary	-11.5669
▁istanbul	-11.5669
▁limitations	-11.5672
▁aisle	-11.5672
▁turnout	-11.5676
▁wow	-11.5677
▁mediterranean	-11.5678
▁milwaukee	-11.5678
allied	-11.5681
▁biologist	-11.5682
pra	-11.5693
▁gonzalez	-11.5697
/10	-11.571
▁pluto	-11.571
resistant	-11.5711
▁boulder	-11.5716
▁implicat	-11.5716
▁psychology	-11.5717
▁mau	-11.572
▁ensur	-11.5725
▁happiness	-11.5725
▁helm	-11.5725
▁ripped	-11.5727
:06	-11.5735
▁stack	-11.5736
▁reef	-11.5737
effect	-11.5744
▁1.0	-11.5746
▁meantime	-11.5751
dollar	-11.5752
▁radaronline	-11.5754
▁interfere	-11.5755
▁migration	-11.5758
▁liberties	-11.5763
▁isaac	-11.5764
▁evolutionary	-11.5766
▁minimal	-11.5768
▁unrelated	-11.5768
▁bristol	-11.5773
▁maternal	-11.5773
▁grammy	-11.5773
▁malaysian	-11.5778
▁incorporat	-11.5782
▁equity	-11.5792
izer	-11.5802
▁boulevard	-11.5811
▁fond	-11.5813
▁bir	-11.5815
human	-11.5819
▁encrypt	-11.582
▁exploring	-11.582
▁fargo	-11.5829
▁excavation	-11.5833
▁0.00	-11.5833
second	-11.5844
▁myanmar	-11.5849
▁worries	-11.5858
▁bronze	-11.5858
boro	-11.5858
:26	-11.5861
ovich	-11.5864
sound	-11.5864
▁trayvon	-11.5868
▁precious	-11.5868
▁programming	-11.5869
▁pageant	-11.5872
▁structural	-11.5877
brien	-11.5883
stead	-11.5886
▁endanger	-11.5886
,700	-11.5888
▁papa	-11.589
▁sensitivity	-11.5896
▁buffalo	-11.5896
▁dragon	-11.5909
:17	-11.591
▁confession	-11.5912
▁retaliation	-11.5916
▁ivanka	-11.5916
:37	-11.5916
▁carrie	-11.5916
▁unlock	-11.5917
▁weakness	-11.593
▁heels	-11.5933
▁implant	-11.5935
:42	-11.5935
▁hatred	-11.5938
▁disruption	-11.5943
▁hypothesis	-11.5944
▁hilton	-11.5949
profit	-11.5952
▁purported	-11.5954
▁acknowledg	-11.5956
:08	-11.5957
▁northwestern	-11.5958
▁expose	-11.5965
▁occurring	-11.5966
:53	-11.597
▁slim	-11.5971
shift	-11.5971
▁abnormal	-11.5973
▁perpetrator	-11.5973
▁prank	-11.5974
▁denmark	-11.5975
strong	-11.598
▁cautious	-11.5983
▁manifest	-11.5983
▁headache	-11.5987
▁haunt	-11.5988
▁subpoena	-11.5993
▁theresa	-11.5994
▁lance	-11.5994
▁khashoggi	-11.6002
▁admire	-11.6003
▁freshman	-11.6004
:33	-11.6011
▁triumph	-11.6012
▁whereabouts	-11.6012
▁metres	-11.6027
▁nephew	-11.6031
▁slipped	-11.6043
trump	-11.6045
▁franken	-11.6058
▁cried	-11.606
▁undocumented	-11.6061
▁inequality	-11.6061
schneider	-11.607
▁hopkins	-11.607
▁dairy	-11.6071
▁statewide	-11.6072
▁revolutionary	-11.6074
▁richardson	-11.6079
▁compliance	-11.608
▁dorm	-11.6084
:04	-11.609
▁font	-11.6091
▁wade	-11.6094
▁decent	-11.6095
▁toyota	-11.61
▁luke	-11.6104
▁reiterated	-11.6109
:07	-11.611
▁grove	-11.6111
▁attach	-11.6113
▁shkreli	-11.6119
▁adverse	-11.6122
▁dental	-11.6123
▁mainland	-11.6124
▁ancestor	-11.6129
▁composition	-11.6129
▁sanford	-11.6131
▁difficulties	-11.6132
▁recommendation	-11.6133
▁wander	-11.6133
chron	-11.6134
▁madonna	-11.6139
▁measles	-11.6139
▁sierra	-11.6139
▁purple	-11.615
sphere	-11.6152
▁originat	-11.6166
▁bernardino	-11.6169
▁cannon	-11.6169
▁observe	-11.6173
▁checkpoint	-11.6173
▁forgotten	-11.6178
▁halloween	-11.6178
▁applaud	-11.6178
▁joshua	-11.6178
▁worship	-11.6178
▁commentator	-11.618
▁ransom	-11.6181
▁bab	-11.6183
▁calories	-11.6183
▁ecuador	-11.6188
▁feinstein	-11.6198
▁alexis	-11.6202
▁1987	-11.6207
▁forbid	-11.6212
▁romance	-11.6215
▁shiite	-11.6222
:24	-11.6224
▁dietary	-11.6225
▁loop	-11.6226
▁25,000	-11.6227
▁norwegian	-11.6228
▁inspire	-11.623
:28	-11.6232
▁overlook	-11.6236
▁orchestra	-11.6238
▁applies	-11.6238
▁persuade	-11.624
:23	-11.6244
▁fireworks	-11.6248
▁measur	-11.6249
ammar	-11.625
:57	-11.6251
▁cooperating	-11.6252
:43	-11.6254
▁intact	-11.6262
▁expense	-11.6268
▁pornography	-11.6268
▁somalia	-11.6274
▁quinn	-11.628
:54	-11.6283
ುತ್ತ	-11.6285
▁reproductive	-11.6287
▁displaced	-11.6287
▁simmons	-11.6287
▁summon	-11.6289
▁brew	-11.6293
▁fertility	-11.6297
▁prostitute	-11.6297
▁shook	-11.6297
▁runway	-11.6303
▁qualify	-11.6305
▁contestant	-11.6306
▁diana	-11.6307
▁cult	-11.6307
▁rebecca	-11.6307
:31	-11.6308
▁rubble	-11.631
▁canvas	-11.6311
▁lieutenant	-11.6317
▁framework	-11.6319
▁travis	-11.6321
:02	-11.6328
▁racing	-11.6328
▁supermarket	-11.6328
▁jihadist	-11.6331
assembl	-11.6334
:22	-11.6334
▁obstacle	-11.6337
▁surgical	-11.6337
▁darren	-11.6341
▁censor	-11.6347
▁census	-11.6347
▁jenkins	-11.6348
▁reflection	-11.6357
strom	-11.6363
:21	-11.6365
▁1976	-11.6367
▁nashville	-11.6367
▁scam	-11.6368
▁consume	-11.637
▁brig	-11.6378
▁physics	-11.6387
▁glacier	-11.6387
:09	-11.6388
public	-11.639
▁1985	-11.6395
▁playboy	-11.6398
▁recep	-11.6398
:51	-11.6402
▁katy	-11.6414
orthodox	-11.6418
▁anxious	-11.6418
▁koch	-11.6419
:32	-11.6426
▁inevitable	-11.6427
▁felon	-11.6427
▁subsidies	-11.6428
collar	-11.6428
▁glimpse	-11.6438
▁asleep	-11.6438
:56	-11.6438
▁bachelor	-11.6448
▁thumb	-11.6449
▁sworn	-11.6458
▁feud	-11.6468
▁awesome	-11.6468
▁brink	-11.6469
:49	-11.6474
▁ought	-11.6477
▁fraction	-11.6478
hawk	-11.6483
▁colonel	-11.6486
▁fugitive	-11.6489
▁barricade	-11.6489
▁unleash	-11.6489
▁ritual	-11.6489
craft	-11.6495
▁cyrus	-11.6499
▁forbes	-11.6501
:38	-11.6502
▁divert	-11.6503
▁firefighter	-11.6505
▁curiosity	-11.6509
▁muhammad	-11.6509
▁nicholas	-11.6509
▁extradition	-11.6509
▁indicator	-11.6519
▁modified	-11.6519
▁spoil	-11.6519
boat	-11.6523
▁breakdown	-11.6526
kill	-11.6533
populat	-11.6535
▁ellis	-11.6536
▁1981	-11.6539
explaining	-11.6542
▁trek	-11.6547
▁luther	-11.6548
▁underneath	-11.655
▁magnetic	-11.655
driving	-11.6552
▁devil	-11.6556
▁caffeine	-11.656
▁opposing	-11.656
:52	-11.656
▁premise	-11.6561
▁glen	-11.6563
▁swap	-11.6569
position	-11.6569
▁bash	-11.6576
▁attendance	-11.6576
▁vitamin	-11.6581
▁transmitted	-11.6581
:46	-11.6581
virus	-11.6582
▁shade	-11.6582
▁mateen	-11.6585
▁roommate	-11.6587
▁emphasis	-11.6591
▁dubai	-11.6591
:58	-11.6591
:34	-11.6597
▁elevated	-11.6601
▁tennis	-11.6601
▁await	-11.6608
▁monetary	-11.6611
▁baton	-11.6617
educated	-11.6619
▁attraction	-11.6619
▁taco	-11.662
:36	-11.6626
▁mtv	-11.6626
▁mach	-11.6629
▁worn	-11.663
▁witch	-11.663
▁0.1	-11.6645
▁elevator	-11.6653
▁chavez	-11.6653
▁indianapolis	-11.6673
▁characterized	-11.6676
▁incoming	-11.6679
▁rover	-11.6683
▁vancouver	-11.6684
▁jewel	-11.6685
:47	-11.6688
▁bounc	-11.6693
▁altogether	-11.6694
▁calculation	-11.6694
▁fascinating	-11.6694
▁hoffman	-11.6694
seat	-11.6703
▁accessible	-11.6713
▁slain	-11.6716
▁paragraph	-11.6716
javascript	-11.6725
▁fetus	-11.6726
group	-11.6729
▁martha	-11.6736
▁arnold	-11.6736
▁refusal	-11.6746
▁reservoir	-11.6746
▁1.4	-11.6746
▁recipe	-11.6747
▁relied	-11.6747
▁lynn	-11.6749
▁mario	-11.6752
▁envelope	-11.6757
▁essay	-11.6757
:03	-11.6759
▁1969	-11.6763
▁evangelical	-11.6767
▁introduction	-11.6767
▁mormon	-11.6769
science	-11.6771
titut	-11.6773
ipping	-11.6777
prehensi	-11.6778
▁dancer	-11.6779
mally	-11.6781
▁poured	-11.6788
written	-11.6794
▁televised	-11.6798
▁screw	-11.6799
▁1,1	-11.6803
▁robber	-11.6804
▁explorer	-11.6804
▁dominant	-11.6809
:19	-11.6817
▁adolescent	-11.6819
▁prospective	-11.6839
▁sharon	-11.6848
▁mutation	-11.6851
▁sentinel	-11.6851
▁recogniz	-11.6858
▁bailey	-11.6859
replacing	-11.6862
▁aurora	-11.6862
▁arrow	-11.6867
▁identities	-11.6872
▁advertisers	-11.6874
▁mandela	-11.6883
▁cornell	-11.6886
:27	-11.6888
▁darkness	-11.6896
▁buff	-11.6898
▁disappointing	-11.6904
▁mcke	-11.6908
▁disagreement	-11.6912
▁gilbert	-11.6915
season	-11.6918
:29	-11.6923
▁1982	-11.6924
▁moderator	-11.6925
:41	-11.6927
friendly	-11.6929
▁ellen	-11.6934
▁chemistry	-11.6936
▁argentina	-11.6946
▁reservation	-11.6946
▁kurt	-11.6955
▁genius	-11.6958
▁staple	-11.696
▁instructor	-11.6961
▁carlson	-11.6962
▁commemorat	-11.6968
▁sympathy	-11.6978
▁blessing	-11.6979
▁bernard	-11.6988
▁invested	-11.6989
▁utility	-11.7
▁sniper	-11.7
▁logan	-11.7009
▁constituent	-11.701
▁supremacist	-11.7021
▁backyard	-11.7022
▁browser	-11.7023
▁panama	-11.703
▁respiratory	-11.7032
▁spectacular	-11.7043
▁unbelievabl	-11.7043
▁wisdom	-11.7043
▁assuming	-11.7043
▁goodbye	-11.7043
▁deposition	-11.7043
:48	-11.7043
ತ	-11.7044
▁capability	-11.7045
floor	-11.7049
,800	-11.7053
▁consecutive	-11.7053
▁pivot	-11.7054
▁flipp	-11.7055
▁yang	-11.706
▁calendar	-11.7064
▁deadliest	-11.7064
▁digest	-11.707
▁algorithm	-11.7075
▁giffords	-11.7075
▁cardiac	-11.7075
▁acceptance	-11.7082
▁yelled	-11.7086
▁fifty	-11.7096
▁envoy	-11.7096
▁shoppers	-11.7097
▁stok	-11.7105
▁recreational	-11.7107
▁lamar	-11.7111
baum	-11.7114
▁drunken	-11.7118
▁humble	-11.7122
▁probable	-11.7129
▁verified	-11.7134
scribed	-11.7137
▁crater	-11.7138
▁stumble	-11.714
▁cleric	-11.7141
▁geological	-11.7142
▁joking	-11.7145
▁disability	-11.715
▁shotgun	-11.7151
▁criticis	-11.7159
▁1983	-11.716
▁libertarian	-11.7161
▁coordination	-11.7161
▁scramble	-11.7161
▁liberia	-11.7162
▁contamination	-11.7172
▁wyoming	-11.7172
▁interval	-11.7177
▁delhi	-11.7178
balanc	-11.7178
▁hogan	-11.7183
▁sachs	-11.7186
9-2013	-11.7188
▁swallow	-11.7194
▁trunk	-11.7194
▁scholarship	-11.7196
▁correlation	-11.7205
▁wheelchair	-11.7205
▁cancelled	-11.7208
▁snack	-11.7217
▁delegate	-11.7221
▁slope	-11.7222
▁abusive	-11.7227
▁jewelry	-11.7229
▁alpha	-11.723
ದು	-11.7234
▁blasio	-11.7238
▁chunk	-11.7239
▁2019	-11.7241
lapse	-11.7245
▁dense	-11.7249
▁baseline	-11.7251
dress	-11.7252
▁distraction	-11.7254
▁vigorous	-11.726
▁subscription	-11.726
▁claire	-11.7263
▁naming	-11.7267
▁gasoline	-11.7271
ಲ್ಲಿ	-11.7271
▁oath	-11.7271
▁deliberate	-11.7275
▁agricultural	-11.7282
▁undercover	-11.7283
ಾ	-11.7292
▁collid	-11.7293
largest	-11.7296
▁hockey	-11.7304
▁lobbyist	-11.7306
▁disappointment	-11.7315
▁voluntary	-11.7315
▁concussion	-11.7326
▁presid	-11.7331
▁dominic	-11.735
▁enlist	-11.7354
▁junk	-11.7355
▁compris	-11.7357
ಸ	-11.7358
▁criticizing	-11.736
0.7	-11.7365
▁ಕಾ	-11.7371
ುದ	-11.7378
ಷ್ಟ	-11.7381
▁applicant	-11.7381
▁grandchildren	-11.7381
ಾತೆ	-11.7381
ೆಯುತ್ತ	-11.7382
ಕ್ತಿ	-11.7382
ರುವ	-11.7382
slav	-11.7382
▁safeguard	-11.7383
ುವ	-11.7385
▁stripped	-11.7386
▁strauss	-11.7393
▁tracy	-11.7397
▁goldberg	-11.7399
▁convenience	-11.7404
▁gradually	-11.7404
▁millennia	-11.7404
▁satisfied	-11.7404
▁peanut	-11.7404
▁smuggle	-11.7404
▁leverage	-11.7404
▁hungry	-11.7409
▁patricia	-11.7415
▁ninth	-11.7416
▁foley	-11.7418
▁contemporary	-11.7426
▁mohammad	-11.7426
▁shanghai	-11.7426
consuming	-11.7426
▁clause	-11.743
▁contentious	-11.7432
defense	-11.7434
▁symbolic	-11.7442
▁furniture	-11.7448
▁instinct	-11.7448
▁probability	-11.7448
▁watchdog	-11.7448
▁participant	-11.7448
▁methane	-11.7448
▁dismantl	-11.7449
▁feedback	-11.7451
▁leaf	-11.7451
▁circulated	-11.7459
▁cnbc	-11.7463
▁expertise	-11.7464
▁aggression	-11.7471
▁eyewitness	-11.7471
▁overwhelmed	-11.7471
▁leslie	-11.7473
▁assassin	-11.7477
▁yoga	-11.749
▁confin	-11.7493
▁operatives	-11.7493
▁recognise	-11.7493
▁vicious	-11.7493
▁ontario	-11.7493
▁monroe	-11.7504
▁cattle	-11.7508
bird	-11.7508
▁sequel	-11.7516
▁blaming	-11.7516
▁coffin	-11.7516
▁snapped	-11.7519
minded	-11.7522
ullah	-11.753
▁mouse	-11.754
▁slavery	-11.7542
trans	-11.7545
▁podcast	-11.755
market	-11.7557
▁hammond	-11.7562
▁minorities	-11.7564
calif	-11.7567
▁sadness	-11.7571
▁singh	-11.7572
▁athens	-11.7576
▁lease	-11.7581
▁believing	-11.7584
▁honour	-11.7584
▁intelligent	-11.7595
▁wrist	-11.7596
official	-11.7607
▁cathedral	-11.7618
▁shallow	-11.762
▁marketplace	-11.7632
▁pearl	-11.7635
square	-11.7637
▁vincent	-11.7641
▁criticize	-11.7649
▁voyage	-11.7652
shore	-11.766
▁slice	-11.7663
▁inclusion	-11.7663
▁consciousness	-11.7663
▁slept	-11.7663
▁specify	-11.7668
▁corona	-11.7675
▁graduation	-11.768
▁workforce	-11.7681
generation	-11.7686
▁estranged	-11.7686
specific	-11.7688
▁sprawl	-11.7698
▁huntsman	-11.7698
▁nasty	-11.7699
▁meteorologist	-11.7699
▁blade	-11.7708
▁dentist	-11.7709
wield	-11.7712
▁scattered	-11.7721
▁pleasant	-11.7721
▁bystander	-11.7722
▁advertise	-11.7727
▁accusation	-11.774
▁abdullah	-11.7744
▁contempt	-11.7744
▁drank	-11.7755
▁rupert	-11.7767
▁radioactive	-11.7768
▁barcelona	-11.7778
▁legislators	-11.7778
▁apollo	-11.7778
▁accent	-11.778
▁abduction	-11.779
▁negotiator	-11.779
▁chimpanzee	-11.7801
▁inquiries	-11.7801
▁demonstrat	-11.7803
filled	-11.7813
▁heightened	-11.7814
▁paperwork	-11.7819
logged	-11.782
eurekalert	-11.7825
▁gossip	-11.7825
▁pierce	-11.7827
▁feminist	-11.7836
▁derived	-11.7836
▁installation	-11.7842
photo	-11.7844
▁destin	-11.7847
▁immunity	-11.7848
▁sutherland	-11.7848
green	-11.7855
▁shattered	-11.786
▁comcast	-11.7871
▁christina	-11.7874
▁liability	-11.7879
leader	-11.7893
responsibilities	-11.7895
▁hussein	-11.7895
▁consequence	-11.7895
▁cbc	-11.7895
▁sweep	-11.7906
▁offended	-11.7907
▁adaptation	-11.7908
▁chapman	-11.7918
▁endured	-11.793
▁excavat	-11.7938
▁enthusiasm	-11.7942
▁relieved	-11.7942
7.5	-11.7942
▁entitlement	-11.7953
▁automaker	-11.7955
▁idol	-11.7973
▁motel	-11.7973
▁reunited	-11.7977
▁schmidt	-11.7977
▁gomez	-11.7977
▁boko	-11.7978
▁ideology	-11.7989
▁coordinator	-11.8
▁turmoil	-11.8
▁balcony	-11.8
▁elliot	-11.8001
▁flesh	-11.8017
▁relentless	-11.8024
▁altercation	-11.8024
▁falcon	-11.8027
▁convincing	-11.8036
▁inaccurate	-11.8036
▁prophet	-11.8036
▁angelina	-11.8038
▁diane	-11.8047
▁surrogate	-11.8048
▁bucket	-11.8054
▁lloyd	-11.806
▁1978	-11.806
▁embrac	-11.8061
▁atmospheric	-11.8072
▁eddie	-11.8076
▁animated	-11.8084
▁ladies	-11.8084
▁fitzgerald	-11.8096
▁complicat	-11.8106
▁provincial	-11.8108
▁wives	-11.8111
▁saga	-11.8112
▁excerpt	-11.8119
▁samantha	-11.8119
▁restoration	-11.8119
0.6	-11.8129
▁ideological	-11.8132
▁stump	-11.8132
▁kaepernick	-11.8143
▁katrina	-11.8155
▁lauer	-11.8157
▁swimmer	-11.8158
santo	-11.8158
▁outspoken	-11.8179
▁divisive	-11.8179
▁loyalty	-11.8184
▁analyze	-11.8188
▁diplomacy	-11.8192
▁wendy	-11.8193
▁chaotic	-11.8204
ತ್ತೀ	-11.8206
what	-11.821
▁kathleen	-11.8216
running	-11.8216
▁avalanche	-11.8228
▁drastic	-11.8228
▁livescience	-11.823
▁imaging	-11.8231
▁acquitted	-11.824
▁surgeries	-11.8241
▁milestone	-11.8242
▁fatalities	-11.8244
▁sustainable	-11.8244
▁rihanna	-11.8252
▁homs	-11.826
▁hannity	-11.8264
▁wrestle	-11.8264
▁thread	-11.8265
▁biography	-11.8265
general	-11.8274
▁birmingham	-11.8276
▁arsenal	-11.8276
▁sacred	-11.8276
▁drowned	-11.8281
▁molecular	-11.8288
▁preced	-11.83
inflammatory	-11.8301
▁jupiter	-11.8301
▁malicious	-11.8301
▁gambling	-11.8301
▁uranium	-11.8301
▁catalog	-11.8301
▁adhere	-11.8301
▁combine	-11.8302
ва	-11.8302
▁lavrov	-11.8313
▁impressed	-11.8313
▁mercy	-11.8313
uction	-11.8325
▁provocative	-11.8325
▁rouge	-11.8325
▁tommy	-11.8332
▁revere	-11.8334
▁cocktail	-11.8337
▁exemption	-11.8337
▁retweet	-11.8349
▁scroll	-11.835
▁citation	-11.835
invasive	-11.835
▁graduat	-11.8354
▁exaggerat	-11.8362
▁paltrow	-11.8362
▁corker	-11.8368
▁helmet	-11.8377
logging	-11.8377
▁silly	-11.8378
▁adjacent	-11.8386
▁secrecy	-11.8386
▁capsule	-11.8386
▁folk	-11.8391
▁imprisoned	-11.8399
▁voluntarily	-11.8399
▁inject	-11.8405
▁indefinite	-11.8411
▁unpopular	-11.8411
▁messaging	-11.8413
▁satisfy	-11.8423
▁subtle	-11.8431
▁scour	-11.8435
▁maneuver	-11.8436
▁batteries	-11.8436
▁blair	-11.844
▁megyn	-11.8448
▁modification	-11.846
▁admitting	-11.8498
▁bronx	-11.851
▁attendees	-11.851
▁cruelty	-11.8512
▁subscribers	-11.8513
▁mature	-11.8514
▁obscure	-11.8522
▁zhang	-11.8535
▁debbie	-11.8535
width	-11.8539
colored	-11.8544
▁financing	-11.8547
▁psychiatrist	-11.8547
▁zimbabwe	-11.8547
▁cindy	-11.8548
▁alternate	-11.8548
false	-11.8553
gizmodo	-11.856
▁corridor	-11.856
▁alligator	-11.856
nbc	-11.8567
▁sanctuary	-11.8572
▁captivity	-11.8573
complete	-11.8579
▁reconsider	-11.8585
▁cancellation	-11.8585
▁abrams	-11.8585
▁proposition	-11.8587
▁technological	-11.8597
▁reunion	-11.8598
▁sherman	-11.8599
▁manhunt	-11.861
obsessed	-11.861
▁decisive	-11.861
▁heartbreaking	-11.861
▁natalie	-11.8623
▁sightings	-11.8627
▁circulating	-11.8635
▁dunham	-11.8639
▁magistrate	-11.8648
▁squeeze	-11.8648
▁conscience	-11.8651
▁guatemala	-11.866
▁terrifying	-11.866
▁wagner	-11.866
▁obese	-11.8663
▁fiorina	-11.8686
▁meredith	-11.8686
▁translation	-11.8686
▁intoxicated	-11.8698
▁swarm	-11.8699
▁immuno	-11.8703
▁quint	-11.8704
source	-11.8707
▁excitement	-11.8711
▁shelves	-11.8711
▁bicycle	-11.8711
▁problematic	-11.8711
interest	-11.8723
▁discretion	-11.8724
▁midwest	-11.8735
▁payroll	-11.8737
▁adrian	-11.8738
▁extinct	-11.8742
▁katherine	-11.8749
▁technician	-11.8749
▁typhoon	-11.8749
▁curtis	-11.875
ldqu	-11.8758
▁terrified	-11.8762
▁ordinance	-11.8762
▁polite	-11.8764
▁unauthorized	-11.8775
▁civic	-11.8777
▁organizing	-11.8778
5.5	-11.8781
▁beyonce	-11.8788
▁harassed	-11.8788
▁clever	-11.8788
▁indigenous	-11.88
▁restraint	-11.88
▁immense	-11.88
▁warfare	-11.88
▁cultivat	-11.8801
▁cotton	-11.8801
▁montreal	-11.8813
▁turtle	-11.8813
▁assembled	-11.8815
structed	-11.8819
▁grieving	-11.8826
▁paddock	-11.8826
▁unhappy	-11.8826
▁gorilla	-11.8827
▁tucson	-11.8839
▁cecil	-11.884
▁gallons	-11.8852
▁shipwreck	-11.8865
▁savage	-11.8865
▁erik	-11.8876
▁cnnmoney	-11.8878
▁cockpit	-11.8878
▁commencement	-11.8878
▁wheat	-11.8878
▁prolonged	-11.8878
▁electorate	-11.8891
▁henderson	-11.8891
▁newark	-11.8891
▁slid	-11.8892
▁abundance	-11.8903
▁possibilities	-11.8903
▁kidnap	-11.8915
▁pseudo	-11.8916
▁rhino	-11.8916
▁invade	-11.8923
▁hilarious	-11.8929
▁beyoncé	-11.8929
▁disturbance	-11.8929
▁guantana	-11.8929
▁hybrid	-11.8929
▁whitney	-11.8931
▁imprisonment	-11.8942
▁ambush	-11.8942
▁parasite	-11.8943
▁irrita	-11.8947
▁maritime	-11.8955
▁inherent	-11.8956
▁minimize	-11.8969
▁contemplat	-11.8981
html	-11.8981
inflicted	-11.8987
▁fukushima	-11.8994
▁melbourne	-11.8995
▁shepherd	-11.9008
▁madrid	-11.9008
▁spree	-11.9009
writing	-11.9014
▁fragile	-11.9021
▁reassure	-11.9021
▁amateur	-11.9021
▁vendor	-11.9021
▁silva	-11.9022
▁coerc	-11.9033
▁offspring	-11.9034
▁unlimited	-11.9034
▁ralph	-11.9034
▁guinea	-11.9047
▁abbas	-11.9051
▁refrain	-11.906
▁skepticism	-11.906
▁valentine	-11.906
▁rattle	-11.9068
▁assurance	-11.9073
▁forthcoming	-11.9073
reaches	-11.9077
▁affleck	-11.9086
▁innovative	-11.9086
▁grenade	-11.9086
▁ramsey	-11.9087
та	-11.9088
0.8	-11.9099
▁illicit	-11.91
▁escalated	-11.9113
▁precinct	-11.9113
▁commonwealth	-11.9126
▁petersburg	-11.9126
ergei	-11.9132
▁siberia	-11.9153
▁gaming	-11.9154
▁vertical	-11.9157
▁jpmorgan	-11.9166
2.6	-11.9182
▁fatigue	-11.9192
▁panetta	-11.9192
▁wrestling	-11.9206
consensual	-11.9219
▁drake	-11.9222
▁amsterdam	-11.9232
▁cowboy	-11.9232
▁unwanted	-11.9232
▁brigade	-11.9233
▁profession	-11.9241
▁insufficient	-11.9246
▁molecule	-11.9246
▁nutrient	-11.9246
▁unearthed	-11.9246
▁availability	-11.9259
pompeo	-11.9259
▁hicks	-11.926
▁infringe	-11.9261
▁therapist	-11.9273
▁monarch	-11.9274
▁cremat	-11.9282
▁assailant	-11.9286
▁supplied	-11.9286
▁streak	-11.9286
▁microphone	-11.9287
▁algeria	-11.9291
▁volcanic	-11.93
▁leather	-11.93
▁gardner	-11.93
▁pesticide	-11.9313
▁czech	-11.9327
journal	-11.9329
shoot	-11.933
oriented	-11.9331
▁mercury	-11.934
▁imperial	-11.934
▁flawed	-11.934
▁penguin	-11.9354
▁stairs	-11.9356
▁salvador	-11.9367
▁compensate	-11.9367
▁airways	-11.9368
▁cholesterol	-11.9381
▁mammoth	-11.9381
▁density	-11.9381
▁sovereignty	-11.9382
secret	-11.9384
▁dysfunction	-11.9394
▁deliberation	-11.9394
▁landslide	-11.9394
▁withdrew	-11.9394
▁portfolio	-11.9408
▁prostitution	-11.9408
▁reconciliation	-11.9408
▁roosevelt	-11.9408
▁ebay	-11.9408
▁hydrogen	-11.9409
▁candid	-11.942
▁hurl	-11.9421
▁depressed	-11.9422
▁unspecifi	-11.9424
▁archbishop	-11.9435
▁guzman	-11.9435
▁boundaries	-11.9436
▁vagina	-11.9439
▁detonate	-11.9445
▁discourage	-11.9449
▁lucrative	-11.9449
▁undisclosed	-11.9449
▁outlook	-11.9449
▁theoretical	-11.9449
▁questionnaire	-11.9462
▁unsafe	-11.9462
▁strangl	-11.9463
▁disregard	-11.9476
▁donetsk	-11.9476
court	-11.948
▁acquire	-11.949
▁alexandria	-11.949
▁sediment	-11.949
▁infiltrat	-11.949
▁fiancé	-11.9504
▁nichols	-11.9504
▁thwart	-11.9504
▁shrine	-11.9504
▁gerald	-11.9505
▁tilt	-11.9514
▁consolidat	-11.9517
▁arlington	-11.9517
▁discriminate	-11.9531
▁occurrence	-11.9531
▁accumulate	-11.9545
▁stereotype	-11.9545
▁torch	-11.9549
▁0.2	-11.9554
▁delicate	-11.9559
▁substitute	-11.9559
▁nassar	-11.9559
▁credentials	-11.9573
▁teresa	-11.9573
▁stefan	-11.9574
но	-11.9575
▁scientology	-11.9586
▁distort	-11.9588
▁caesar	-11.9591
▁deduction	-11.96
6.5	-11.9608
▁satisfaction	-11.9614
▁duchess	-11.9614
▁maduro	-11.9614
▁brooke	-11.9623
▁rhythm	-11.9628
▁manuel	-11.9629
▁crocodile	-11.9642
▁dioxide	-11.9642
▁volatile	-11.9642
▁spiral	-11.9642
▁severity	-11.9642
conceived	-11.9656
▁kilometres	-11.967
changing	-11.9684
▁convene	-11.9684
▁proxy	-11.9712
▁culminat	-11.9726
▁entities	-11.9727
▁irresponsible	-11.974
▁synthetic	-11.974
▁liquor	-11.974
▁emphasize	-11.974
service	-11.9741
▁secular	-11.9742
▁dimension	-11.975
▁carnival	-11.9754
▁superhero	-11.9754
▁outcry	-11.9769
▁constrain	-11.9782
▁steenkamp	-11.9782
▁ceasefire	-11.9783
8152	-11.9783
▁decree	-11.9787
▁otto	-11.9799
▁limbaugh	-11.9811
▁pundit	-11.9811
▁hurdle	-11.9811
▁clement	-11.9811
▁abedin	-11.9817
▁apologise	-11.9825
▁twelve	-11.9825
▁migrat	-11.9833
3.6	-11.9838
▁solitary	-11.9839
▁mercedes	-11.9839
covered	-11.984
▁crypt	-11.9843
▁literary	-11.9853
▁uncommon	-11.9853
▁splash	-11.9853
▁carcass	-11.9853
▁destructive	-11.9868
sensitive	-11.9873
▁disastrous	-11.9882
▁appetite	-11.9882
caliber	-11.9882
▁jungle	-11.9883
▁albany	-11.991
▁confinement	-11.9911
▁memorable	-11.9925
▁quebec	-11.9925
▁judd	-11.9926
bacter	-11.9926
▁embark	-11.9939
▁sinai	-11.9944
▁negligence	-11.9953
▁meghan	-11.9954
▁abraham	-11.9968
▁fertiliz	-11.9982
▁duterte	-11.9982
▁buffett	-11.9998
▁snl	-12.0001
▁arguably	-12.0011
including	-12.0021
▁dictate	-12.0022
▁collusion	-12.0026
▁philosophy	-12.0026
▁restraining	-12.0026
quality	-12.0032
▁charitable	-12.004
▁patience	-12.004
husband	-12.0051
▁cosmetic	-12.0055
▁hemisphere	-12.0055
▁aggregate	-12.0069
▁distribute	-12.007
blue	-12.0081
▁physicist	-12.0084
▁steadily	-12.0084
▁presumed	-12.0084
▁imposing	-12.0084
▁jackpot	-12.0084
▁airbus	-12.0085
driven	-12.0096
▁dyke	-12.0097
▁vulnerability	-12.0098
▁dishonest	-12.0098
▁swirl	-12.0098
▁analyzing	-12.0113
▁vaccination	-12.0113
▁exposing	-12.0113
▁nicolas	-12.0113
▁injustice	-12.0128
▁outreach	-12.0131
people	-12.0141
▁quarantine	-12.0142
▁whatsoever	-12.0142
▁policing	-12.0142
▁nissan	-12.0142
▁conspir	-12.0155
▁anticipate	-12.0161
▁migrant	-12.0167
▁occupant	-12.0186
▁predominantly	-12.0186
▁vampire	-12.0186
3.7	-12.0191
▁enquirer	-12.0201
▁intriguing	-12.0201
▁venom	-12.0201
bourne	-12.0201
▁ibrahim	-12.0216
▁receipt	-12.0216
▁skripal	-12.0216
▁clooney	-12.0216
▁plummet	-12.023
▁snapchat	-12.023
▁pathogen	-12.0239
▁imagination	-12.0245
▁remorse	-12.0245
▁inadequate	-12.026
▁fictional	-12.026
▁mcmaster	-12.026
▁outskirts	-12.026
▁loophole	-12.026
▁artillery	-12.0275
▁escalating	-12.0275
▁sauce	-12.0279
mount	-12.0287
▁inconsistent	-12.029
▁necessit	-12.029
▁convoy	-12.029
establish	-12.0293
product	-12.0294
▁confusing	-12.0305
▁simulation	-12.0305
▁pruitt	-12.032
▁jealous	-12.032
▁whistle	-12.032
disproportionate	-12.0334
▁heartbroken	-12.0334
▁unwilling	-12.0334
▁unilateral	-12.0349
phobic	-12.0364
▁accommodate	-12.0364
▁ntsb	-12.0365
▁sequester	-12.0379
▁whisper	-12.038
▁hezbollah	-12.0394
▁gratitude	-12.0409
▁corroborat	-12.0424
▁retiring	-12.0424
▁paramount	-12.0425
▁emirates	-12.044
▁freddie	-12.044
▁converg	-12.0441
▁itunes	-12.0441
▁somali	-12.0445
▁flexibility	-12.0455
▁grandparents	-12.0455
▁rebuke	-12.0455
▁disperse	-12.0456
▁railroad	-12.047
▁allocat	-12.0481
▁disabilities	-12.0485
▁portugal	-12.0485
▁beirut	-12.0485
▁flores	-12.0485
▁dissolv	-12.0486
▁jeopardy	-12.05
▁pilgrim	-12.05
▁provocation	-12.05
▁drowning	-12.05
▁licensing	-12.0515
▁presumptive	-12.0515
▁stimulus	-12.0515
▁mimic	-12.0517
▁rigorous	-12.0531
▁stockholm	-12.0531
▁espionage	-12.0546
▁fraudulent	-12.0546
▁miguel	-12.0546
▁suicidal	-12.0546
▁populist	-12.0546
▁beneficial	-12.0561
▁eliminating	-12.0561
▁vacuum	-12.0561
▁intruder	-12.0561
▁embedded	-12.0576
▁swamp	-12.0576
▁stigma	-12.0577
existing	-12.059
▁engulf	-12.0592
▁meddling	-12.0592
▁grappl	-12.0593
▁ginsburg	-12.0607
▁amtrak	-12.0607
▁abilities	-12.0622
▁varied	-12.0638
proclaimed	-12.0638
▁correlate	-12.0639
▁uncover	-12.065
▁spectator	-12.0653
▁freelance	-12.0653
▁asthma	-12.0659
▁frustrating	-12.0669
▁tiffany	-12.0669
▁miranda	-12.0669
▁trespass	-12.0669
▁relocate	-12.067
connected	-12.0681
▁sarkozy	-12.0684
▁memphis	-12.07
▁regression	-12.07
▁catastrophe	-12.0715
▁inadvertent	-12.0715
▁reimburse	-12.0715
atlantic	-12.0716
▁prosperity	-12.0731
▁apprehend	-12.0746
▁deborah	-12.0746
▁intensified	-12.0762
▁servant	-12.0762
▁nikki	-12.0762
▁invented	-12.0762
▁ncaa	-12.0778
▁prejudice	-12.0793
▁prestigious	-12.0793
▁tamerlan	-12.0793
▁ucla	-12.0794
▁territories	-12.0809
▁britney	-12.0824
▁recreation	-12.0825
length	-12.0828
▁gruesome	-12.084
▁neanderthal	-12.084
▁envision	-12.084
▁variant	-12.084
▁composed	-12.084
▁rudd	-12.0845
stemming	-12.085
▁optimism	-12.0856
8.5	-12.0862
▁salvage	-12.0871
▁purchasing	-12.0887
▁spectacle	-12.0887
▁phelps	-12.0887
▁blockbuster	-12.0903
▁inaugural	-12.0903
▁exxon	-12.0903
▁crisp	-12.0906
looming	-12.0911
▁advanc	-12.0913
▁incidence	-12.0919
▁idiot	-12.0919
▁niece	-12.0919
▁concord	-12.092
▁intimidate	-12.0935
▁reproduction	-12.0935
▁thieves	-12.0935
▁supervision	-12.0935
▁disguise	-12.0935
▁acquaintance	-12.095
▁unpredictable	-12.095
▁rainbow	-12.0951
▁embattle	-12.0966
▁appropriat	-12.0987
ravag	-12.0989
▁chemotherapy	-12.0998
▁giraffe	-12.0998
▁stabilize	-12.0998
▁dvd	-12.0999
▁pricing	-12.1015
▁unresponsive	-12.103
▁overthrow	-12.103
▁skirt	-12.1031
▁stephanopoulos	-12.1046
▁wolves	-12.1046
▁merger	-12.1047
▁wizard	-12.1078
▁saturn	-12.1078
▁enthusiastic	-12.1089
▁shannon	-12.1095
▁aviv	-12.1109
▁vienna	-12.1111
▁culprit	-12.1127
▁luggage	-12.1127
▁podesta	-12.1143
▁unemployed	-12.1143
▁sovereign	-12.1157
▁solving	-12.1159
▁retract	-12.1159
▁smear	-12.1161
▁disarm	-12.1164
▁injunction	-12.1175
▁limousine	-12.1175
▁proposing	-12.1175
▁aluminum	-12.1192
▁smuggling	-12.1192
▁abstract	-12.1192
▁mahmoud	-12.1208
▁caravan	-12.1208
▁pulitzer	-12.1224
▁texans	-12.1224
▁fischer	-12.1225
▁pregnancies	-12.1241
▁empathy	-12.1241
▁automated	-12.1241
▁handcuffed	-12.1257
▁gadget	-12.1257
▁inhibit	-12.1257
fayette	-12.1257
▁auschwitz	-12.1273
▁deteriorate	-12.1273
▁practitioner	-12.1273
▁prototype	-12.1273
▁virtue	-12.1273
▁invisible	-12.1273
▁remarkabl	-12.1277
▁upstairs	-12.129
▁emmanuel	-12.129
▁naacp	-12.129
phobia	-12.129
▁lewandowski	-12.1306
▁plausible	-12.1306
3.8	-12.1311
▁calculate	-12.1311
▁airbnb	-12.1323
▁spontaneous	-12.1339
▁umbrella	-12.1339
▁videotape	-12.1342
▁discredit	-12.1356
▁doctrine	-12.1356
▁stuart	-12.1356
process	-12.1359
▁schwartz	-12.1372
▁critique	-12.1389
▁unravel	-12.1389
▁congregation	-12.1405
▁impairment	-12.1405
▁obsession	-12.1405
▁rohingya	-12.1405
▁kathy	-12.1406
jected	-12.1407
▁delete	-12.141
▁daenerys	-12.1422
▁gdp	-12.1423
▁decompos	-12.1435
▁dwarf	-12.1439
▁granddaughter	-12.1455
▁registry	-12.1455
▁jinping	-12.1456
▁bullied	-12.1456
▁ptsd	-12.1456
▁interrogat	-12.1462
▁allegiance	-12.1472
▁influenza	-12.1472
▁clapper	-12.1472
▁lavish	-12.1472
▁dmitr	-12.1483
▁confiscat	-12.1489
▁shakespeare	-12.1489
▁warmbier	-12.1489
▁computing	-12.1489
▁diagnostic	-12.1506
▁clarity	-12.1506
release	-12.1514
▁fifteen	-12.1523
▁marilyn	-12.1523
▁parameters	-12.1523
▁flirt	-12.1523
language	-12.1531
calorie	-12.1532
▁aquarium	-12.1539
▁ottawa	-12.1539
▁scaramucci	-12.1556
▁ahmad	-12.1556
▁composite	-12.1573
▁xinhua	-12.1573
▁generating	-12.1573
▁ankara	-12.1574
▁evict	-12.1575
▁disposal	-12.159
record	-12.1601
▁biblical	-12.1607
▁copenhagen	-12.1607
▁irregular	-12.1607
▁welcoming	-12.1607
▁equation	-12.1607
▁stockpile	-12.1608
▁contraception	-12.1624
▁medieval	-12.1624
▁kimberly	-12.1624
▁miscarriage	-12.1641
▁staggering	-12.1641
▁substantive	-12.1641
▁illuminat	-12.1658
▁sculpture	-12.1658
▁undecided	-12.1658
▁volkswagen	-12.1658
ಬ	-12.402
•	-13.2143
£	-13.3365
	-14.6792
	-14.999
!	-15.7691
)	-15.8358
	-15.937
ಪ	-19.0889
ಹ	-19.089
ಡ	-19.0891
@	-19.0892
[	-19.0892
